/**
  ******************************************************************************
  * @file    network_data_params.c
  * @author  AST Embedded Analytics Research Platform
  * @date    Mon Jul 10 22:29:25 2023
  * @brief   AI Tool Automatic Code Generator for Embedded NN computing
  ******************************************************************************
  * Copyright (c) 2023 STMicroelectronics.
  * All rights reserved.
  *
  * This software is licensed under terms that can be found in the LICENSE file
  * in the root directory of this software component.
  * If no LICENSE file comes with this software, it is provided AS-IS.
  ******************************************************************************
  */

#include "network_data_params.h"


/**  Activations Section  ****************************************************/
ai_handle g_network_activations_table[1 + 2] = {
  AI_HANDLE_PTR(AI_MAGIC_MARKER),
  AI_HANDLE_PTR(NULL),
  AI_HANDLE_PTR(AI_MAGIC_MARKER),
};




/**  Weights Section  ********************************************************/
AI_ALIGNED(32)
const ai_u64 s_network_weights_array_u64[11746] = {
  0x3fb78fc43f028fa7U, 0xbe993bde3ee7a0b1U, 0x3f293f3dbd95a547U, 0xbe6e364d3f0049e8U,
  0x3c4795303f0c6aacU, 0x3e4819d33f3c77b4U, 0x3fe7df31bf90a525U, 0xbf42ac743eb6def4U,
  0x3f62ef7b3f1c34b5U, 0x3ed447333ef89ab1U, 0x3ff636e63ef86b28U, 0x3fa7b6c53e8d374aU,
  0xbf92cea73f81f929U, 0xbf9cae7abed0c942U, 0x3e58147d3f73aa0aU, 0xbf4048923f2e8b23U,
  0x3df79b963e4ca8d9U, 0x3c68cb163c834734U, 0xbe0cfbee3d8d4755U, 0x3bae95533cc4b045U,
  0x3de5a52f3cf2c78bU, 0xbd3306193d85b5e4U, 0x3e2ede4bbc0c8e10U, 0xbce42076bcf4c438U,
  0xbcf667783d73f762U, 0x3d939648bd814380U, 0x3e141b95be12d09fU, 0xbceef3d93c826b31U,
  0x3c42c1113e126317U, 0xbc25cd33bdd82d10U, 0xbdf28ef43da2a6dcU, 0x3ceaf798be662dbbU,
  0xbc2c6f393e3dbc9aU, 0xbd44917d3d172115U, 0xbdb2765fbbc00504U, 0x3d5a9804bdd50964U,
  0x3cb6cfe1b995c32eU, 0xbd9dfe883e0df032U, 0x3d207be4bd4d289aU, 0x3e14766bbd871bf1U,
  0x3da5b153bcc7f01dU, 0xbd94bb323cd1be26U, 0x3d58d851be3fa92aU, 0x3d9e04e9bdb861f0U,
  0xbdacabba3cd1b7beU, 0xbd2f22ad3d8a3c19U, 0x3cafc359be1ea84aU, 0x3b01aebbbe230a1eU,
  0x3d9e9e6d3e25956aU, 0x3d1e6669bdfdd844U, 0x3d2bf5a3bc846039U, 0xbd4cd4e0bd92cb5dU,
  0xbdabf471bd015dadU, 0xbcc38a413d9a792dU, 0x3d2edf173d9703fcU, 0xbcf84c58bd4a06d3U,
  0xbca78eacbda45401U, 0xbe4080b7bd9e1756U, 0xbc61a016ba1724aeU, 0xbe22520dbd06b36fU,
  0xbd678f31be90d73fU, 0xbd5b8a6ebdbbed18U, 0x3bb6e0f7be372bdaU, 0xbe20b046beab7d53U,
  0xbd3a37ab3d7a4b39U, 0x3d2a09c43e305289U, 0xbdbc100c3e5bd519U, 0xbd7253e23e0ff1e4U,
  0xbe2662e4be020a39U, 0x3d20eb713dd5614cU, 0xbd84f280be4ffe21U, 0x3d4f4bc13daf4142U,
  0x3dcfddf6bdb82e20U, 0x3e33831bbcd1e27aU, 0xbe010a29bc1c2df7U, 0x3ecaaeb43e24607dU,
  0xbe3280fd3ed83a66U, 0xbdd2d441bdf6629bU, 0xbde4948ebd4a75fdU, 0x3ea38c46bdfe40f6U,
  0x3e4c3f3c3d90c507U, 0xbd7d462e3e2b37edU, 0x3d8102623e72218dU, 0xbda1a3443e211420U,
  0xbe03c716bdd5381aU, 0x3d0c63213d6bf576U, 0xbc81df72bdd0cd1bU, 0xbd55dee73d94751aU,
  0x3daf41233cb289fdU, 0x3d8f7dcc3c5049d8U, 0xbd43e59cbb388bffU, 0x3ed5f0cf3e624d0cU,
  0xbe95a6ab3e8f3f93U, 0xbc613414bd9a8487U, 0x3c9d9803bd1197abU, 0x3eab6bf13df34471U,
  0x3d2092403dc4b84dU, 0x3cf01e593da1aca7U, 0xbddc1a1f3d4e38d2U, 0x3e0deb7e3c80a604U,
  0xbd04651cbd124dadU, 0x3e378caebd2c4284U, 0xbe3c5562bdbfa3f0U, 0xbdb2eb21bd8c0df0U,
  0x3d6c580d3c1b502dU, 0x3dcf11673dab5a65U, 0xbe4c1ed13db4d130U, 0x3ecd4d60bca1a1f6U,
  0xbe3b8877bd1cbbf2U, 0xbd59c11fbd308ce7U, 0x3e3d13bfbdc5a306U, 0x3c7bccdfbe871e09U,
  0x3c646a2bbdaff3b8U, 0xbd5b45363b1ba6aeU, 0x3e2f0337bd974c44U, 0xbe35ae10bcd72dc5U,
  0xbdb50186bdc5f0e1U, 0xbe13ff193e104a54U, 0x3cc8a237bdae4f70U, 0xbd8a6b823d2b2c9cU,
  0xbc3b6e23bdfef9b8U, 0xbe2d19153dce6f8aU, 0x3cb4078fbdee74c3U, 0xbdd233cabde7f262U,
  0xbea3b765bda94845U, 0xbddac07dbdb83fa0U, 0xbdf18673be1a49ffU, 0x3db5b206bd7ed938U,
  0x3d838bba3d81cfbcU, 0xbe01ac763dbae7a9U, 0xbe4ae62ebe630c9fU, 0x3d4064d6bda767c8U,
  0x3dc41d073b36155bU, 0xbcc0e0e3be744adcU, 0x3d196a153cd2c8c8U, 0x3cd2d838bbd3bbf6U,
  0xbd3ce558bdf2e294U, 0xbe94eb47bdbbd5d2U, 0x3d6f56bbbe313c57U, 0xbdab7c16bdcb9a7fU,
  0xbe652f87be0374b8U, 0xbda2a9afbd9f69a6U, 0x3d068d653e4aa5f5U, 0xbdf25c27bced7087U,
  0x3dd73e11bd32bd6aU, 0xbdc0add33d0fac41U, 0xbdad6012be1ea6d7U, 0xbdcafa5abdbb4bd6U,
  0x3e1994053d0af7fbU, 0xbe0b92f5be375f1bU, 0x3ddbf293bda94109U, 0xbd8e34c13c21bcdeU,
  0xbe1812a2bdc30db7U, 0xbe1f4069be1710f1U, 0x3e119478be152474U, 0xbcd0dc86bcf60994U,
  0xbe979130bd18eba9U, 0xbe04e8f9bdbcbc69U, 0xbd0547663dab2396U, 0x3d89c233be69a586U,
  0xbe37eeac3e0dabdcU, 0xbd5bcfad3c50cdf3U, 0x3dda61583dacabd8U, 0x3e0d6292bd3f32adU,
  0x3dafab4bbd6f2e51U, 0xbc925a1bbb34b62aU, 0x3cedd8a43c557c9cU, 0x3cb462133e0d2c71U,
  0x3d2ef70e3d40df16U, 0x3ca76bc53c4be2bdU, 0x3dc7c4aabc18f2a2U, 0x3db0cb12bc7bc28fU,
  0xbc065a8fbcfa7c78U, 0x3d25e8e43d38fa8dU, 0x3d9e479fbd82a209U, 0xbd141f433d983daaU,
  0xbd8918063bed6ddfU, 0xbddde1953d9b26b4U, 0x3d09bc54bd3fe261U, 0x3cc1673abc9c6362U,
  0xbc8e40afbca19594U, 0xbbd58e9abc665f50U, 0xbd10d686bddd7245U, 0xbba8ca4d3deddcf9U,
  0x3b5869743e040484U, 0xbcbae394bce83ae4U, 0xbcb118643d9dd31dU, 0x3dda09d6bd10ae45U,
  0x3dae6cc43d63fac1U, 0xbce50b22bc2b8bc9U, 0xbd45b82dbd386ef6U, 0xbcce6a173d4d2602U,
  0xbdbf85c63d234266U, 0xbd9018223d0c212aU, 0x3d3d0df83dec6f04U, 0x3df819cd3cbc05b8U,
  0x3d9e2b12bda68c5bU, 0x3c4900c6bcb464c0U, 0x3dab2ab7bd2bc03eU, 0x3da240b93e0d31ebU,
  0x3dfd57123d4315f9U, 0xbdab4890bc4fe269U, 0xbd31c9903d0d2d5fU, 0x3d9ac626bd53bc13U,
  0x3d91c371bc7af510U, 0x3d239a5b3d9f1f0bU, 0x3be94f10bdb68c0bU, 0x3dbd9a323d9aa46aU,
  0x3c0a16a8bd80cb1eU, 0xbd1dd3f7bd3641e0U, 0x3e02210abdc363e3U, 0xbe0010823d295736U,
  0x3d890380bd5abb50U, 0xbe0e625dbe28bf28U, 0x3dadb5543ce17c26U, 0xbdd54cb63d8e99fdU,
  0x3cd42a9ebd474835U, 0xbd548b77bd59a48aU, 0x3e1208ac3c8fa342U, 0xbe7df1f5bcdde4cdU,
  0x3dff95aebe2f2f21U, 0x3d7a6aa0bd184cb3U, 0xbd13761e3df4dfc4U, 0xbe85f17a3d01cbe7U,
  0x3e8ec68c3c686da5U, 0x3cc1729abdfba358U, 0x3b8c026ebdc0ca6bU, 0xbe1b6def3d0ea894U,
  0x396d5846bc5c1061U, 0x3bc3f920bd0704b1U, 0x3e8b918d3dc041fcU, 0xbd809734bd21055fU,
  0xbdbfce7ebd106036U, 0xbdc7337dbd17190eU, 0x3e0ed908bc8ffeb5U, 0xbe48b127bdd235b1U,
  0x3da21b42be680475U, 0x3dbd8db9bd9c9698U, 0x3d6bde3f3e0c65f6U, 0xbe273ee5bbb02d1aU,
  0x3e7da5c03d213387U, 0x3935ea1abdafd8c7U, 0xbc696dadbde9832fU, 0xbb89fc833d3c61adU,
  0x3dce54fd3e6ed0e4U, 0x3d4c4489bdf1694aU, 0x3e6c7a143d7c97a8U, 0xbe15b9f33df0da29U,
  0xbdecd067bb55415bU, 0xbd7e46a63bdcc111U, 0x3e892c0c3c12f2baU, 0xbdc6ef6fbc764244U,
  0x3e0ee449be6befdbU, 0x3d152c413d889f68U, 0xbb72a5833e95d4c1U, 0xbe8da2b73d5f2c2eU,
  0x3cfedb593d166980U, 0xbd214e5b3c96a61aU, 0xbe6b116ebdf93ce1U, 0x3ce885b03c1ec175U,
  0x3d52d6713b7e049aU, 0x3e0d465bbddf8d86U, 0x3dfed5e4bc626a20U, 0xbba3d6f7be23d97fU,
  0xbc8906cfbe1e7d9fU, 0x3e1d74d3bc90d14aU, 0x3dc38ba6bbaf8ab7U, 0xbdf5f458bdb76671U,
  0x3e08a69d3b01228aU, 0x3d213393bb7c928bU, 0x3d30f97b3dfe0e03U, 0xbca6916cbd56bee6U,
  0xbc81a5d13c9388b6U, 0xbcf59f243ca1a93dU, 0xbe2bcecebddf0695U, 0x3ce03ebe3c46adb9U,
  0xbc885f593d4ecedcU, 0xbcb13c79bd5b6594U, 0xbcf1a6913d1a47f2U, 0x3bda3f15bd92499aU,
  0xbc498c1ebc647b59U, 0x3d9f8fc33da39264U, 0x3d4cc498be07f397U, 0x3da2907abe0162d1U,
  0x3e01d2cabd1d522fU, 0x3ce78ce53cf15dd2U, 0xbd5c51adbdbd1bc8U, 0xbdfc7d78be103046U,
  0x3dab740a3dfa32bfU, 0x3d8efc15ba3cdec6U, 0xbe2717b6be00be70U, 0x3dc3bd533c0dfafeU,
  0x3e0ff1a43dd758a2U, 0x3db44d05bd99113fU, 0x3e02735c3d77344dU, 0x3dd7bdcab9c1a61aU,
  0xbdb9ab3abe34c578U, 0x3de611d7bca712f8U, 0xbd184d08bd8738e2U, 0x3af3d9d1bd15cf53U,
  0x3e1d15903e020607U, 0x3da6e78f3e073caeU, 0x3ce75d7e3de63c41U, 0xbd3151ddbd9b5deaU,
  0x3b061d9c3c652bcdU, 0xbc420f6bbdcc7272U, 0x3cde61593cd290c0U, 0x3d36b3923d1fb331U,
  0x3d310acc3d828885U, 0xbd147440bd51525dU, 0xbd792703bd5ee607U, 0xbd524166bdf5b7fbU,
  0xbce5a6c53e19f80bU, 0xbd3f55313dc53670U, 0x3d987e523c9e09a8U, 0xbdac56c63d180d51U,
  0xbcf4db2bbd625279U, 0xbdaa9156bdae5350U, 0x3d4645babe20c2f7U, 0xbbc638623e861a7eU,
  0x3d2ced143ba6a7dfU, 0x3d4b886dbd986d97U, 0xbdbc54b5bd56a7e2U, 0x3c0b05bfbdb3368fU,
  0x3d3df3ac3ca40593U, 0x3ced57ebbe58f156U, 0xbc908e47bd84bbb3U, 0x3c306e363c8ea3ffU,
  0x3e4672873dbf5400U, 0xbb9bbcf1bcb7069aU, 0xbdca53c1be10203eU, 0xbd5c1b9f3e521098U,
  0x3d5b1c28bd488f2dU, 0xbe32a4d3be0fea5bU, 0xbc66ce36bd0d3163U, 0xbc48c5fb3dfb9237U,
  0x3d804674bd672285U, 0x3d9facb8bdc3e782U, 0xbdd48ae5bd5428a5U, 0xbd3b6fe73c96f290U,
  0x3d14555c3dc39f2fU, 0x3d7d4209bd957bb5U, 0x3d72e9333d0b0f8eU, 0x3c2d6b273d170527U,
  0xbc954feb3ebefa3fU, 0xbd673ed03c4e382eU, 0x3c1ae684bb85a813U, 0xbbae74543e2d8c1dU,
  0xbb08a9b4bd89cec2U, 0xbe6c6553bd74e304U, 0x3d4ba8fdbdc83c8bU, 0xbe291b083ea68253U,
  0x3b9148f03e607f3aU, 0xbd9df0af3ea5af6dU, 0x3d5b2a97be0ff50bU, 0x3d6191683dac5ecbU,
  0xbda784623e1b0e7dU, 0xbcaf7f4dbddc6d49U, 0x3e6856c03e2425d2U, 0x3cf2ec98bd09c178U,
  0xbe551b1a3ddb678aU, 0xbc44370c3dc3ecf9U, 0x3c5165c3be4fd1abU, 0xbe154c0b3e1b7fa2U,
  0x3e0d3ab6be19754eU, 0x3e6b78f03db95f27U, 0x3c9a6cd23e0ddb6aU, 0x3d4b3595be6127bcU,
  0xbcdd9db33d92fb36U, 0xbd5bd385bc97a019U, 0x3e8260ffbcdae419U, 0x3a4ce1a73d8b5d42U,
  0xbd9a5d99bd844e4eU, 0x3da1979abe8fe05eU, 0x3d46dc683d04886eU, 0x3c0a50d43dace9e5U,
  0xbef1af1c3e018804U, 0xbd17452c3e2e69cbU, 0x3d2526fcbcede598U, 0xbcb226733e30fe73U,
  0x3d1ccacb3c955b1cU, 0x3d6966503d1fd350U, 0x3dc452ae3d467bcaU, 0xbdbc51f9bd8981a1U,
  0x3e84e5f73ddd6469U, 0x3db4dc333eea489bU, 0xbca3f9383dafa8b8U, 0xbcacff7e39ef538cU,
  0x3d13f64abb0af161U, 0x3e40a458bda73533U, 0x3e6ed8543e1c70e5U, 0x3d93e44dbe392190U,
  0xbe65918ebdae6b2aU, 0x3bace3373d528e33U, 0x3acc4cd7be37ae86U, 0xbe3dd75a3e9500d0U,
  0xbb04e1cf3ccb4bd3U, 0x3d5c09b13da2c386U, 0xbd73517c3e0d7403U, 0xbacce080be1cc539U,
  0x3dbac580bcadffacU, 0x3d5a9d133d7abb2cU, 0xbdb3090ebdd87279U, 0x3cc693403dee1e6eU,
  0xbd3dd8b33e774c3bU, 0xbc8aa23bbe37e103U, 0x3e851bb93dabbc79U, 0xbe1b013ebca48a67U,
  0xbb485b05bdc4175dU, 0xbd5a641dbdbc51a0U, 0x3e33bad53db8243bU, 0xbd48cacbbdadf95bU,
  0x3e593cae3e3e9b9fU, 0x3d0d7cb3bd3084aeU, 0xbd857e2c3d9557fcU, 0x3b9fcc153e6c597cU,
  0x3e20c5203e3cda64U, 0x3d9222593e4c5d32U, 0xbe9482d7b9b8f7deU, 0x3e088bb63a4f8617U,
  0xbe03aaaa3e6e0c9fU, 0x3d88685dbdacebd0U, 0x3e86941b3e3df233U, 0x3b93cd3c3e502d7bU,
  0xbe568f36bd107bfeU, 0x3d6a19903c0b2b0bU, 0x3e21cd28bd67b563U, 0xbde889493e039506U,
  0x3e7557ea3da1d951U, 0x3d98499abdd33520U, 0x3d98c3583e2ab0f3U, 0x3e4e0e643e638a57U,
  0x3d78da52bd48399bU, 0x3dbc0db43e4e5a1aU, 0x3d7cb4e83c8b5f42U, 0x3dedb484bc392631U,
  0xbe684c483edbfd7bU, 0xbd110e01bd88d8ebU, 0x3eb434093dd69c35U, 0xbe40f3243dadfc00U,
  0xbbdc85f1bd4bb710U, 0x3d448cfb3cb3fe77U, 0x3e86d06b3e27f7e9U, 0x3db5301b3cab766eU,
  0x3e2a95b13d2a79baU, 0x3e31a0e1bda31d6fU, 0x3cbd381f3e4ce61fU, 0x3daffc7b3e0e7638U,
  0x3c80d800bd91688dU, 0xbdabdae6be38c035U, 0xbcf3a100bd9dead6U, 0xbd44131bbd0c98e4U,
  0x3d8719753ce4afd2U, 0x3dbe1434bde2c266U, 0x3d4cb45cbd96f19fU, 0x3c65b28dbdb7c6a7U,
  0x3d8a4c6e3e8084b2U, 0xbda790823ced2d2aU, 0xbd3b42cfbe100b04U, 0xbc7c6dc8bb8266fbU,
  0xbc4ad234bd802a71U, 0x3d2fd28dbe173fcdU, 0xbd52bd97bd972835U, 0xbdee306abd29ad4cU,
  0xbca94242bd5380b6U, 0x3d3fbd42be366ca6U, 0x3d06f8edbdc18724U, 0x3d3298ed3d880f04U,
  0xbd9194e7bd2a9764U, 0xbc93f02dbda73370U, 0xbcbdb9493c679083U, 0x3d350480bda9762bU,
  0x3cc51f7a3b959f4cU, 0x3d2222f6bd2d7a20U, 0xbdb45aeabd6ab1d8U, 0xbcb87e873cb2e609U,
  0xbdbfcc58bce3fc57U, 0x3da03319be0215f8U, 0xbd927070bd8d0f10U, 0xbd6abd093d00283aU,
  0x3c816421bc1d67bdU, 0x3a9405e5bde44307U, 0xbcd8850739bbf08bU, 0xba1401a43d4d19d0U,
  0xbc5f4e223dc08729U, 0x3cb5d0fd3a84d51dU, 0x3d866b95bcb5ecd7U, 0x3d57ba1abb88fddbU,
  0xbce56d553e8bc2eeU, 0xbd2cb4f13dd58c65U, 0x3d6d464abda2b1b0U, 0x3d9d6c1a3d3ee982U,
  0x3bf93b88be0c99e3U, 0x3c48b4c8be12ea88U, 0x3d7f8299bcd0e0deU, 0xbd87eed2bd92381fU,
  0xbd9423833e37b741U, 0x3ded64fe3ea754c1U, 0xbe8544893e573c27U, 0x3e3f65b83d48484aU,
  0xbc8efdd73d99fc10U, 0x3e68dc85be5b9df6U, 0x3e159927bbb0c644U, 0x3d223b3ebcd5a940U,
  0xbe891f82bd6a8f85U, 0xbdaca7e2bc759d32U, 0x3e121688bd9827fdU, 0x3d70dfc63e8dccedU,
  0x3d8fa1f33d205972U, 0x3dff9f833cffd4bfU, 0x3dd3a80d3e0cd248U, 0x3e212a21bd97cee9U,
  0xbdd8b1fa3e003a78U, 0x3cbdd5453da62e07U, 0xbe9110d53d2bf5ddU, 0x3dafba0f3e3ab913U,
  0xbdc0944e3d916d33U, 0x3e7557febe6a4ba3U, 0x3d2f5e7a3a7eeb1bU, 0x3da2890e3d94c146U,
  0xbe60f62abd1e4e6eU, 0x3d1096603ccf4560U, 0x3db2c659be351a6eU, 0x3dd593a53e23d43aU,
  0x3d6e1b4a3dfb967aU, 0x3df9a480bcef9dc5U, 0x3e04946e3db45661U, 0x3dd72ca2be13be4dU,
  0x3c5af8a03e04a910U, 0x3c33be2c3eda8c15U, 0xbda2b5853dcad983U, 0x3e0849cd3dac2cbbU,
  0xbdf099bd3dd53a05U, 0x3d4fe9d3be53a9ecU, 0x3e5cd0f43d2247cfU, 0x3b8fdf8dbd54a9dfU,
  0xbe423d0dbb897e33U, 0x3e0f1d643c8505b7U, 0x3da8826dbd852bc6U, 0x3d33adb73e3ac490U,
  0x3da1f2c23da3bfb6U, 0x3da4710abd847c42U, 0x3d4881733e26428eU, 0x3e418719bdc7a48bU,
  0x3dc61b543dd6866bU, 0xbbd25aea3dc9069bU, 0xbda7be85bdcf6a77U, 0xbe3484763caeab48U,
  0xbd4f1ca23e0622f1U, 0xbdc28fe03a36817eU, 0x3e2db3b9bdccc13fU, 0xbd5f2d7a3da0bb50U,
  0x3cd39f973cf51305U, 0xbd5d919c3d36f0b0U, 0x3cbbace63dfed65aU, 0x3e007587be46c9c3U,
  0xbd54b8273e17f761U, 0xbde82e1cbcfae249U, 0xbc795c8b3e172297U, 0x3cd7582c3d185d4bU,
  0x3e020d273da5a2caU, 0x3d7158673e56b175U, 0xbe2f6287be35f107U, 0xbdcfa9413d076c6fU,
  0xbd21a9703e1a92adU, 0xbdd996f03e22a692U, 0x3e6da3b3bdc2815eU, 0xbd5faf143e329e5fU,
  0x3d8a763cbc052ef0U, 0x3c8d2dbe3d2dc02dU, 0x3e22f499bc878639U, 0xbdaa8ecdbd21cf40U,
  0x3cb882583dca9d96U, 0xbd9b2d57bd99c16cU, 0x3be5e6ad3e733e79U, 0x3d298e8c3e18201bU,
  0x3d9cbc853de92ab2U, 0xbc8df5bb3e3620d5U, 0x3dd6c670bc2d3f01U, 0xbda2c5babdca4752U,
  0xbdc3eb863ddd8466U, 0xbe117d573d525feaU, 0x3dccce303d35b126U, 0xbdbfcc863d99b371U,
  0x3d25ac8b3d59aee6U, 0xbd8944d43de9e98fU, 0x3e04d3eb3e7a3bc6U, 0x3d1c9d3fbceacf70U,
  0xbd18ceb73e2929b6U, 0xbde9cb5bbe153722U, 0xbd23b2263e94ed9fU, 0x3e6cef743c9aedc3U,
  0xbd9d928cbd3b6d9eU, 0x3c6e2f263d7ca44bU, 0x3dbcb8bf3c65f867U, 0x3d57911cbd042745U,
  0x3cfe4a4d3cb0fc7eU, 0xba6869d5bd3678bbU, 0xbab53d97bc61ea9eU, 0xbd408afc3db13250U,
  0x3b847d883d8eda8dU, 0xbd10739eb9e856e4U, 0xbb92ad5cbd5fa7d7U, 0x3bd019ff3d0ac3abU,
  0xbcc408d43c350228U, 0x3ce9f9043d246292U, 0x3d8773223c641257U, 0x3b3135593d4f2b38U,
  0xbd724aa4bbff8b4aU, 0xbc8a52b43d88d419U, 0x3ca2913abc92b5b0U, 0x3c3d698cbc172c0aU,
  0x3d7b0171bcff3d7eU, 0x3d2e97a3bc96b04dU, 0x3b1da954bbd6e8daU, 0x3ca8deef3ced6863U,
  0x3cfe77a53d9ba7b1U, 0x3cbe7b2e3d4091e7U, 0xbd25facb3c07b7dfU, 0x3d6a293abc60ebd9U,
  0x3ca73ce33ca0db73U, 0x3ceeb7c63c83e286U, 0x3cb9d67abd04179fU, 0x3b57d9a73d856514U,
  0x3a8e2dc93d7753ccU, 0xbc76db9b3dc360ffU, 0x3cc87c933ddc908bU, 0x3d5085ea3cb6da4fU,
  0x3d28ec313d5663b3U, 0x3d4ba3433c46c521U, 0xbd00e96abaef19c3U, 0x3d625ec73d911833U,
  0x3d10e6f03d912ea6U, 0xbd760d81bbb703b0U, 0x3b354de73d447840U, 0xbb13ca15bd31e0efU,
  0x3c1b749dbcfcc5fcU, 0x3adbcf643db6737aU, 0x3df317db3dd0f11eU, 0xbbafc1dd3ca007d7U,
  0x3d4030813cba51aeU, 0x3d3b72b4bcc2211eU, 0xbb356f53bd5b45daU, 0xbda155823cc47297U,
  0x3d72027dbb741ea5U, 0xbe3ed8c7bd89b356U, 0x3e26effd3cdef7eaU, 0xbd7ae0683bbb8900U,
  0xbe0d5828bdce9bc7U, 0xbd6521d23d6a776aU, 0x3e58bcdcbc865bb1U, 0xbe2a319ebdbe9defU,
  0x3de9d4bfbdbd6c3eU, 0xbd816c463cd12b36U, 0xbdc205383d62c91fU, 0xbdf766293d7d4b4dU,
  0x3e176d1cbd0d2fbaU, 0x3ce49c363bf5465bU, 0xbbf0902bbd8a2d3bU, 0xbd0701a139648af5U,
  0x3dae5f0dbd157f4cU, 0xbc9aef91bd1ecbdbU, 0x3ea5eab73d06b1efU, 0xbc6fa251bd8a2191U,
  0xbda09043bd1898dcU, 0x3d2ed692bd3fa922U, 0x3e3c64c4be08c74dU, 0xbdc940d0be7912ecU,
  0x3e01e3bbbddb4b3eU, 0x3ccc3381bc80a9d5U, 0xbd1ee050bcc4ce5dU, 0xbdbb4774bd30b406U,
  0x3e132f8a3d158f40U, 0x3d0eb7a8bc3da639U, 0xbd1f467bbdbe8824U, 0x3d150e953d515c02U,
  0x3e592a17bce0c19dU, 0xbd4bea04bd471030U, 0x3e78db143cafae13U, 0x3cc632d13dc05595U,
  0xbdf8d34dbdca7c3eU, 0x3bf07a82ba72e434U, 0x3e81fd143b40a695U, 0xbdf8f8f8be3f4133U,
  0x3db125ccbdae504dU, 0x3b6be8da3dba64f1U, 0x3c7d51b63e0415e8U, 0xbe1a37963d87697fU,
  0x3d545c933bbb8c49U, 0x3c871bd0bd2e283cU, 0xbdc343c8bd71d123U, 0x3ca9cee33c2bbcfcU,
  0x3d3c5512bcc29208U, 0x3c4e3195bd7dd9c5U, 0x3c71d59abd4e2545U, 0x3d034776bd82d8fcU,
  0x3c326cf6be3b8e08U, 0x3e25ebc53d37a509U, 0x3caab0f9bbb9e868U, 0xbd61c7c5bd1ad683U,
  0x3b8f35733d1fbb43U, 0xbbca92813b91b2bbU, 0x3c0086113e0c8f3bU, 0xbd892f0abde9c2a1U,
  0xbbcb8708bd46f2c1U, 0xbc47a0dc3d98ab84U, 0xbda82e4abcdc9124U, 0x3d6c542abd05b46fU,
  0xbc244d373d453035U, 0x3c88c25dbd31aa62U, 0x3c609f01bcaa229cU, 0x3d891cd9bcc96e9cU,
  0xbd2672613c8553b4U, 0x3dcbfa59bd0659b3U, 0x3d8087f5bdba6ee4U, 0x3d9b456abe123768U,
  0x3d3d18523d83acdbU, 0x3bc34de33d9d2f61U, 0x3d880d2dbe1044b0U, 0xbd8c7dc8be148a94U,
  0x3c9237113e0842d7U, 0x3b9293a83b903883U, 0xbe78fd3b3bfec297U, 0xbd1cedc03cbadaefU,
  0x3df046313e27e203U, 0x3d1382c8bcfafff3U, 0x3e028215bcc14a2fU, 0x3d1fb29dbdb48950U,
  0xbe07017ebe0fe71bU, 0x3d0861a6bdcf6a92U, 0x3d9253c73cf16d9dU, 0x3e128afdbe0d4b0cU,
  0x3d46d0d93d67e847U, 0x3d85c3613e5c7b88U, 0x3d1201993dec0bd9U, 0xbd7ceaa9bdc32e72U,
  0xbca674263c5145e8U, 0xbdb2d3c4bda82496U, 0x3d13e1ddbd9fc5eeU, 0xbd8e530d3cc1acf0U,
  0xbd2249e13d064c85U, 0xbd949e94bdaa12cdU, 0xbd962fe8bd302892U, 0xbda1abb73bcde7bcU,
  0xbe2e0cd03ca1aea9U, 0x3d5b28033c0004eaU, 0xbd76a6623e041b7fU, 0x3ccd53493c9c1e88U,
  0xbcb34e08bba1f7ffU, 0xbc91af2fbd755b09U, 0x3c98c150bd8d39b8U, 0xbd71fdca3e2910d9U,
  0xbdf077ed3dbe64c4U, 0x3d445ac3bd79bd40U, 0xbe004b7ebe06f5b5U, 0x3cb86566be1cf486U,
  0x3c2390cd3b5c4729U, 0xbd7b4cd0bcac0aadU, 0xbcbf3f81bd730ed9U, 0x3d4e3cd4bdfe9fd6U,
  0x3e112b2c3c925711U, 0x3c082c1cbd42ac51U, 0xbdcef9f63dcf1d92U, 0x3c74b5183d2c2604U,
  0xbd9fe5d63d22fa54U, 0xbd1f4599bd2f522fU, 0x3b0b5b0dbc105c9cU, 0x3cb0b3cc3c1d1cb5U,
  0xbc819230bcaf9ff3U, 0x3cd2b1afbdc47894U, 0x3c9bce9b3ba1bf50U, 0x3ca9f8593d8a320fU,
  0xbdbe13b8bc63271dU, 0x3caf44f8bc30889eU, 0xba2f8afcbb48bc3cU, 0xbd90c35e3e21f67fU,
  0xbc7770793e1f6773U, 0xbe7a03a43d20fbe8U, 0xbc8f207b3df2bb20U, 0xbdddcc063e01f723U,
  0xbbab4f84be201062U, 0xbd33ed0ebdf33e0dU, 0x3d8e68e63d184ba7U, 0xbe208c303c81064bU,
  0xbdb3be5b3df304e0U, 0xbdaf06893de2cb1bU, 0x3d3581913d5188b8U, 0x3cf711b73d143184U,
  0xbe245f923d04163eU, 0xbc67edeebd54cb1eU, 0xbde7e7e23de5b355U, 0x3c5fd4303cbf366aU,
  0xbe3749b03e220deeU, 0x3e0e872c3b46e79dU, 0xbe056d6dbe57e801U, 0xbe0b56733e6031d0U,
  0x3d609ec8bc9dafe2U, 0x3d4ef4eabd0f260cU, 0x3daa1b54bc954484U, 0x3c9af8a5bdeb3e79U,
  0xbd4f354bbd53f2d1U, 0xbd0a4ac33d9afb82U, 0x3e3985c8bcab3bc5U, 0xbd41bb60bdb514c7U,
  0xbd674a93bd29c27eU, 0x3e2cab6ebdc1809fU, 0xbe3d42483ce5b0b6U, 0xbdcaacc13e06cedaU,
  0xbe750ffdba0b7b95U, 0xbd8f86a53da2a289U, 0xbdc5099b3c852fa6U, 0x3ca073ee3dd2c055U,
  0x3cff3d46bde7c27aU, 0x3e1738f33d4a832aU, 0x3dcc8b583daf742dU, 0xbd426127bd47d00aU,
  0x3e2641de3d991fbeU, 0x3c8758e63e3b5e16U, 0x3c19d9b6bd487e11U, 0xbd7491273d883b06U,
  0x3db13fc73d261822U, 0x3e566b4b3dd2aa99U, 0x3da82937bcf35b5eU, 0xbcea1dcbbd10a72aU,
  0xbdd0dc6e3c932aa2U, 0x3da7c28bbd35c122U, 0xbc138cbfbe01608cU, 0xbda659763dddfa75U,
  0xbdefaf49bd2f95dbU, 0xbcabc00a3e1195d5U, 0xbe0dde0f3e808f13U, 0xbce74883be07ec27U,
  0x3daf9aadbd496399U, 0x3d51c4923da2834cU, 0xbb8a2c45be2d1418U, 0x3caed7f53e269456U,
  0xbe3801513cfcc4cdU, 0x3e39ad04bcb13e85U, 0x3e06004f3d729aa4U, 0xbd88625a3e082d3eU,
  0xbbf8540bbd220cc4U, 0xbc0712d23d49a15eU, 0x3d4abc60bd7ddf3aU, 0xbbfa71a9bb5d4ea9U,
  0x3dc221a6bdb03ed9U, 0x3c1d5c42be600b04U, 0xbdb7925dbd1ff1eaU, 0xbe62ea553e29fc91U,
  0x3e23e5f13e033e45U, 0xbc5459773e9b4aceU, 0xbdae976fbdd8c748U, 0x3de3edfe3d9839f8U,
  0x3bc09d453e0ab510U, 0x3b1e8b38bdb9ca90U, 0x3e5aa5353d943ab9U, 0xbce885c83d2e06a1U,
  0xbe188596be4da80eU, 0xbc040f593d316d63U, 0x3d84e85e3d9a036dU, 0xbdd477843e08c75bU,
  0x3dc17911bc97547aU, 0x3d8c046fbd99548cU, 0x3d9f64503e7de401U, 0xbd0512a83d63cbd9U,
  0x3e0be1ebbc9b1babU, 0xbd75af663e3cb41aU, 0x3e5b9afe3ca66bc9U, 0xbd36d4c33d889ec0U,
  0xbb7c48943e66c59bU, 0xbd849e71bdc38e78U, 0x3e88f12d3dc29611U, 0xbdd193a13d69ddb2U,
  0x3d05477f3d045779U, 0x3dd52bf2b9c7bcddU, 0x3e4a0e0f3c826d34U, 0xbd5c21b23d5f0b7aU,
  0x3badcd133e088af8U, 0xbdc3f590bbf59efeU, 0x3cf0c5c33d138a4dU, 0x3ba4fb053dabbc2cU,
  0xbcdcd4b9bc2002baU, 0xbc4d7d4c3d608998U, 0x3d5fd6103d79236dU, 0x3cad5f863d3e1c4cU,
  0x3d5c4594bd2e0c47U, 0x3c78b994bcb393b7U, 0xbd7cbb673ccc1789U, 0x3c710f8b3d939441U,
  0xbce38c643dbab489U, 0xbd7d3f353d3c6568U, 0xbd0c95de3ca8ccc5U, 0x3d53fd523d130e0dU,
  0x3d5cd71ebcd3edbeU, 0xbc8d20b63dafa95dU, 0x3db2ee223d25d039U, 0x3d042f823d3e2725U,
  0xbd12487fbd692322U, 0xbbc7bf483d2b6fddU, 0x3d1027db3d300f9dU, 0x3cedbc0abb870adaU,
  0xbbb264cb3d0920acU, 0xbc0db190bbfaa14bU, 0xbd0be1b1bcc514ecU, 0xbcc1e20c3d84f6a4U,
  0xbd448ea33d992d7cU, 0xbd1fdecf3becd47eU, 0x3d47302abc423f87U, 0x3c9cea93bcb1b3e3U,
  0x3ce2ecc4bceea92fU, 0xbcbb4d8d3d35db1aU, 0xbd20b541bcbc8738U, 0x3d69b369bc2000a6U,
  0xbd5263d03c7bcf45U, 0x3abd8bd63d72ca4cU, 0x3d8d0edb3cfb1639U, 0x3ca80f4c3b920ab0U,
  0x3c2bcf513d88dc18U, 0x3d68ad793caf5ef0U, 0x3c60a803bca081f2U, 0x3d0b9ee03df8d8e8U,
  0xbbbd988d3d07f0b5U, 0xbd6a17b5bd39655dU, 0xbc3f7caebcc3e66aU, 0x3d5740dc3c35fe2eU,
  0x3c5440f7bcb7ca20U, 0x3bb8e0613dac747bU, 0x3dd8e80b3db6ecb7U, 0x3c7ded1a3d1f62e2U,
  0x3c9340213b85cf9eU, 0x3c89dd9b3c91027aU, 0xba88de7bbb1281faU, 0x3c83de2ebbb428f5U,
  0x3d8ef4cbbdc498daU, 0xbe2b8746bd54ec0dU, 0x3e06e5a8bb92378dU, 0x3cc275c0bcc4c155U,
  0xbdf79addbdd70f6eU, 0xbcb4d80d3d4717a9U, 0x3e27e709bd5f0ff4U, 0xbdc89578bdc88478U,
  0x3d3b78753ce466f5U, 0xbd8c822bbd0926c8U, 0xbd12f5ad3d0b6c79U, 0xbc9763cf3dd91564U,
  0x3d355d54bd29407aU, 0x3cfc85bf3d82da53U, 0xbddc61b23c9975f4U, 0x3bcb49c0bc38e6bfU,
  0x3d56eda9bda20cc1U, 0xb95b0724bdb5fc6bU, 0x3e06a41a3d1bc791U, 0xbd3b2bbebd60141eU,
  0xbe0133bcbdef401eU, 0x3d3df402bd471ebcU, 0x3e1bb370be45c2ceU, 0xbd5e1c5abe63bb49U,
  0x3dbb661d3c8da69fU, 0x3c44767b3cb21ae8U, 0xbd9d3299bc21f2ecU, 0xbc8776913bec377dU,
  0x3dcc9ca8bcceaf08U, 0x3d01769abbd6aa28U, 0xbdbc6ddc3c07dd7cU, 0xbd100ad53d6065cbU,
  0x3e372e21bd084041U, 0xbe230bbebd440a56U, 0x3e43ac2bbc031e34U, 0x3c092f733c4f2adcU,
  0xbe272f96be3961adU, 0xbb3949e63b4759abU, 0x3e5fc3bebdce91cfU, 0xbdf5a15cbe5e8465U,
  0x3b60c75c3d1e0cabU, 0x3d073d873d6a404aU, 0xbd88bb5a3e029969U, 0xbd8e63163dfd2227U,
  0xbc7b17ce3d328da8U, 0xbc8c05993bca9715U, 0xbdc04498bd9b054bU, 0x3d5970c13c910214U,
  0x3dd00d38bd05b671U, 0x3cd361a6ba304d92U, 0x3d4add76bd1dcf52U, 0xbcc786a6bc2e4309U,
  0xbd21aa1cbd97e592U, 0x3d14180b3d16102bU, 0xbc095e00bc8ffc6dU, 0x3d1bcac7be0872a6U,
  0xbc8175a73da02661U, 0xbd006e943cd06cfbU, 0xbac83e803d920592U, 0xbc823d41bd97f9c7U,
  0xbd2156a7bd5f5f00U, 0xbd38a4ed3b2c5e27U, 0x3c2d4191bcfbb47cU, 0x3d08497abc86e004U,
  0x3c4d808bbd24f1afU, 0xbdc70180bb765f77U, 0x3bb60cf3bc937730U, 0x3cc5601c3c064cf3U,
  0x3ccc2afe3c2711edU, 0x3d1e6be03c553228U, 0x3c15f787bd4d461eU, 0x3d762f3abe138d5aU,
  0xbd94ec0b3c490414U, 0xbc98ce6d3d88af17U, 0xbc394eb3bd96a4e8U, 0xbd6a0d94bdc63ddaU,
  0x3b9f0f883e150b07U, 0xbd6fe6923910a81bU, 0xbd6ef04b3cbc337aU, 0xbcfba821bb978fd1U,
  0x3cfcd4633dd6ea94U, 0x3c20e3043cae5d63U, 0x3d58fef53c0cbe73U, 0x38296e443d15215cU,
  0xbd34a57cbc51c1a9U, 0x3db37067bd81b082U, 0x3ce93d363d68dd29U, 0x3e05b394bdd41405U,
  0xbcae95613da51fbbU, 0xbc659feb3e009822U, 0x3db3355e3e1d8e0bU, 0x3df44e3dbdd8570dU,
  0x3c0ae2f43c711cb9U, 0xbd2ece8d3b9f62c0U, 0x3c9be4a3bd625facU, 0xbd7108663c65cc93U,
  0xbd2056f5bc3440d2U, 0xbd76c057bd88e5bcU, 0x3c49663abc914484U, 0x3ccfe7243d3c7017U,
  0x3d07e9ac3d746677U, 0x3d21970d3dd019c5U, 0x3d849d08bd0eb857U, 0x3cd828f4bd2638aeU,
  0xbd2e5a6f3ccc2a55U, 0x3c5cfe963d25c96cU, 0x3d67ce3cbc92683aU, 0x3d5433c03d0f424eU,
  0x3ba6042a3c9d691eU, 0xbcee9b04bd57669fU, 0x3c5c7f39bc29ad61U, 0xbd85d181bcc16c64U,
  0xbd2eee913d353e84U, 0xbdd9ca9d3d9b24c9U, 0x3cbf8899bd4c8656U, 0xbc08e09c3cdb590dU,
  0xbae6bdb63dda7dbbU, 0xbc8a80cabd1457ddU, 0x3d5528d7bc33194fU, 0x3d8840ed3c997d29U,
  0x3ca9f8febd01ed1cU, 0xbcfd8c0c3cad470fU, 0xbd483327bd7380b8U, 0x3cd083363ccbe87fU,
  0x3d414aac3d81d264U, 0xbda4c55b39c40b36U, 0x3d6997e4bcaa5ae4U, 0x3d5352393beada79U,
  0x3d27c8fe3d565dacU, 0x3a4715553d2068caU, 0x3cbed0b93afcf0bcU, 0x3c2b3b743d5b74e7U,
  0xbc9ab3fd3d9b5e67U, 0x3d39bcd03bd46a8aU, 0x3d4b1c2abc9c05d0U, 0x3d1f4ffebc9400f2U,
  0xbcb08551bce784e3U, 0xbd6779e73d22ab82U, 0x3cdbf5233d03ceddU, 0x3c8660bbbc87a1a5U,
  0x3d8eb0c03ca2d8b4U, 0xbdb36d053d713761U, 0xbd75ec4cbdd02da4U, 0xbb55cb443ddff7d6U,
  0x3d4ac606bc8a1db8U, 0xbdfd8a17bcc3c479U, 0x3dfc94acbd7689f4U, 0xbd6afb123d89d02aU,
  0xbe1eb6fabe8b78bdU, 0x3c9fe1db3da1a0f3U, 0x3e3ec9febc6e0ea5U, 0xbd8d38d4bd580dcdU,
  0x3d41233bbd079352U, 0xbd8b7a41bd98d780U, 0xbd377baabc4bf56dU, 0xbdc86d0f3d4001fcU,
  0x3e028b82bdc6f520U, 0xbc549715baa1c8e7U, 0xbdb7d4ccbd43c883U, 0xbd5296d23d64c35eU,
  0x3d7d03c8bcef42d1U, 0xbbec9561be29f7a7U, 0x3e5c2112bc93929dU, 0xbdaac0dbbce5e88cU,
  0xbd86fb6cbe04f2e5U, 0x3c67b5d8bd25e36aU, 0x3e625ed0be758d86U, 0x3d339b60be0de91eU,
  0x3c3f5aa53d223bfdU, 0xbda2abddbd686a08U, 0x3c4b831fbccce840U, 0xbcb7c148bd434e7eU,
  0x3e1a905bbbd1c81eU, 0xbb3a47f83dc7fb06U, 0xbe2ff9373ca500e6U, 0xbc9f86693e1555edU,
  0x3d59a1d4bca68a05U, 0xbde0a39cbe0b588eU, 0x3e633ef0bd90c942U, 0xbd23e26b3dbd5264U,
  0xbe19450ebdd00afcU, 0xbd21f8973da85d8bU, 0x3ea27dedbd33cc05U, 0x3b2f2d4fbdc80a62U,
  0x3c71bc8dbb4c93ceU, 0x3b90894abca2d9adU, 0xbd02ccdd3dc85605U, 0x3bf5f6343de845b0U,
  0x3cecd919bb32eed8U, 0xbcb6a6f8bdea3d91U, 0xbe257467bdd43e81U, 0xbd9e253bbcb10c17U,
  0x3e0a7e7ebd7fe862U, 0xbe2fe2183db7aaefU, 0x3cf29e35bc8b8262U, 0xbc170f20be3171acU,
  0x3dcd2178be5bdba8U, 0x3dec1ef43d8300feU, 0xbd9d6c813e2663ccU, 0x3d586757be40a230U,
  0xbd57e28b3e093880U, 0xbd9718933d9ceb6dU, 0xbd97e96d3d0cf73eU, 0x3d873148bd9af567U,
  0xbcf4df50bdbadb01U, 0xbca56744bcdea3feU, 0xbdcaef33bd89bae9U, 0xbbccc3523d2e3d16U,
  0x3d56c03cbd19f0e9U, 0xbe0357303d931116U, 0xbcc002b13bbd403dU, 0xbb3ab83cbcd60f81U,
  0x3c080436bd96fff7U, 0x3d7698583bbb3f4bU, 0x3ce3e2dabdc65aa6U, 0x3d5dfb7cbe668d68U,
  0xbdf8fa493d96e714U, 0xbda308843db25008U, 0x3c6fc2afbdff0487U, 0xb86cac76be3e68ecU,
  0xbc2b782e3e270e1fU, 0x3d4d7a573baa9ce4U, 0xbe08964ebd5c8357U, 0x3d1be5e7bd6eb5c6U,
  0x3dae7f7c3da809c7U, 0xbd40da49373cd98aU, 0x3dd98acabd300227U, 0x3d28dcf6bd252f2aU,
  0xbd15b7dbbe25a72aU, 0x3d6bbba13c0abb0dU, 0x3d4371423e05044cU, 0x3e05e369bdda9494U,
  0xbda6b3363e073191U, 0x3d2fa5983e07bc06U, 0x3c1a389e3e3f16fdU, 0x3d84f85dbde9f3f4U,
  0xbd92928d3d833d2dU, 0x3be6e0953d9574bbU, 0x3df646023d47e5f0U, 0x3d7f3771bb968969U,
  0xbd3f97e03c9a0bbcU, 0xbdfcdc413ca78b82U, 0xbd26caddbce798adU, 0x3da458f03c552a4eU,
  0x3d69a40fbd83f990U, 0x36f946333d5d0fefU, 0xbce60137bd85b811U, 0x3cdca645bd9d0dc4U,
  0x3d995c93bdad78dcU, 0x3c818f413c2b33e7U, 0xbdb6e7e3bda19a10U, 0x3d47afa03d4a23daU,
  0xbd8ef7a7bbde7b33U, 0x3d65d58d3e9776e1U, 0x3d9a7764bd1814e6U, 0x3daf34ae3cb0fa1dU,
  0xbb83e05dbdf15841U, 0xbace27463c90f92eU, 0x3db3e8eb3dbdb84fU, 0x3da0ff0e3d3fc762U,
  0x3c93c565bd424ce0U, 0xbd4fb8af3d21bc9cU, 0x3d14e99a3aedbd63U, 0xbe126ef5be175bf7U,
  0x3d7edc883cc7c903U, 0x3e2025583ddc6d99U, 0x3d821e1a3dab67acU, 0x3d3c97cc3e0aa15aU,
  0xbd873fc8bd307541U, 0x3d34e2843ddea2b4U, 0x3d8fd1d4bdaf844eU, 0x3d512e69bcdac381U,
  0x3bc6c530bde65087U, 0xbddc3fdf3b417b12U, 0xbc8c04e6bc13b55aU, 0xba67e7ae3e0af074U,
  0x3dc1169fbc9af62fU, 0xbdc1fe753dce4910U, 0xbca8afd7bdbe5cceU, 0x3b0fb66cbe06dedfU,
  0x3e127a143c4fd4c9U, 0x3cba51823d964ebeU, 0x3d19b3453d497b3bU, 0x3da36657bce875d0U,
  0xbb754a21bd54f676U, 0xbe018cb9bd82988eU, 0x3d06054dbd5bd909U, 0xbe75c258be34f9a7U,
  0x3a20fada3b913f3cU, 0x3da971fa3d160e82U, 0x3cbdb96a3e0ee756U, 0xbdaf9c5dbe813694U,
  0x3d704db93d8d3ab1U, 0xbca89201bdc4741dU, 0x3bdb63cebd881505U, 0xbdb31eb9bdc2c19cU,
  0x3d3bea4fbe14dfc9U, 0x3d89069f3e9d8766U, 0x3d407bc13e4e8795U, 0xbd663090bd272d65U,
  0xbdccb83bbd7fc94fU, 0xbda6e07abe09282eU, 0xbba1ed11bd0b7427U, 0xbe8c6f16be43792fU,
  0x3d8fd7a43df2f1b4U, 0x3d9b32eb3d951ea6U, 0xbd9893013d8849aeU, 0xbe0e9f13be781826U,
  0xbdd814fa3d04698fU, 0xbdb27532be19fa71U, 0x3d1ba1cc3df2fb52U, 0xbd6dd94fbdfc8850U,
  0x3d8e50fcbdb18304U, 0x3e1ec5793d9e0e5dU, 0x3e0684e23e56f40dU, 0xbe2a8c81bcf5b322U,
  0xbc8c193ebb681132U, 0xbe2f1959bd17fc6aU, 0xbd96fd28bca96b23U, 0xbe89680cbe48f7f1U,
  0x3e0b0bbf3d64a9d7U, 0x3d9f85fd3d17bdedU, 0x3cfcdbbf3ddd9292U, 0xbe4740a7be567f3aU,
  0x3cf252c13dba6d61U, 0xbc5ada75be209d1bU, 0x3d2c2d0cbd1c9f34U, 0xbd818e38bd8dc860U,
  0x3dc412afbe0f0902U, 0x3d51d9b13ea748cfU, 0x3c1da25c3e93f435U, 0xbe5eea7a3dc88f2cU,
  0xbcd505eebca8541cU, 0x3d7009f93d9801e9U, 0xbd516ef23d324018U, 0x3dc9823ebd00accdU,
  0xbdb8e10c3bf8bacbU, 0x3e3b440cbe40b9bbU, 0x3c14bb5a3cd55fcdU, 0x3d13aeb0be472a1eU,
  0xbe83871cbd360b75U, 0x3e29d5fdbe0e1ed3U, 0xbc4b55b0be4cfef7U, 0xbdd828953e8abbe0U,
  0x3e49c2db3d5dbd4fU, 0x3a77a734bd8d9234U, 0xbd9a7970bd98653dU, 0x3df99557bddd936dU,
  0xbdad475e3e13cfeaU, 0xbca84b35bd872954U, 0x3cdde1e53e3329ebU, 0xbc96b44abddee9e7U,
  0xbc0c59763df1b640U, 0x3d07263b3ac30158U, 0xbd0d3a61bcf9c43bU, 0x3d95488bbde85767U,
  0xbd71f2653d01e5a6U, 0x3d5eef63bc2f6153U, 0xbd32c4893d0943b1U, 0xbd38e0af3e2cbedaU,
  0x3d8d19483de22fd7U, 0xbd457571be2cbe98U, 0xbcccf497be904f23U, 0x3e4229193d920dedU,
  0xbcc92c19bcdb821cU, 0xbcf35a6d3d94fb5aU, 0xbd99ea72bccd284eU, 0x3ce2cb493bb3e8b1U,
  0xbd554fa13e12e628U, 0x3e27bedabd0c3919U, 0x3d4452ab3c920a0bU, 0x3d6c3062bd032fdaU,
  0xbde7bde8bda121b6U, 0x3dffc10abe29c56dU, 0x3c6ffbe3be3102adU, 0xbda1d0743e542881U,
  0x3e1c13353d5460edU, 0xbc87e76ebe0e1930U, 0xbe2fec53be4d250bU, 0x3dcc0776bd078ac4U,
  0x3a815dd4bdaf98baU, 0x3daa7db83d0e4a91U, 0x3b7b0fbebdc4ce6dU, 0x3d140ada3d4cb0eeU,
  0xbd58cf2b3d94b65bU, 0x3aa36e20bd547ba5U, 0x3d8e06ac3df67df5U, 0x3d0b1dce3d26a952U,
  0x3da8cc683d9519caU, 0xbd28aa2d3d0ed78fU, 0x3d6bbe893c3d1d64U, 0x3c50e2b6be0d7fadU,
  0xbd8de01a3c9d8314U, 0xbc2e286bbd93180aU, 0xbc8b63edb9135230U, 0xbc1b25e5bd646357U,
  0x3e06f3be3c2aa9c5U, 0x3d0895bb3e4dd491U, 0x3cea5ed23b809442U, 0x3d80fe833e0e42cbU,
  0x3d50af413d9bff79U, 0x3dd28fbcbcdaee54U, 0x3e16e1f53d2e691dU, 0xbbbe2c9b3e2cbcd1U,
  0xbd92864fbd0d40efU, 0x3babb4da3aaaab9cU, 0x3af5ffe83dab3a4cU, 0xbd612be1bc211602U,
  0x3d455f7d3c036fe4U, 0xbd193a07bcd69233U, 0x3d4f603b3d72f94aU, 0xbc2fe5823cd3819bU,
  0x3dd3284cbc6b3e86U, 0x3de2c7333e7344d5U, 0x3dafdb35bd489c59U, 0x3d8dd6c33bad4722U,
  0x3d37af393d8b8870U, 0x3da76d53bdb226f5U, 0x3d1216ed3dc8db48U, 0xbcd8ee063dd5425fU,
  0xbd80abd6bd058deeU, 0x3c492ae3bca92b20U, 0x3e1b783e3dccb3b1U, 0xbd03a8cfbd517e81U,
  0x3d7ce3433d60ce54U, 0x3c882b7e3db360e9U, 0xbcff81c23d606e98U, 0x3b948c543ba52cffU,
  0xbd2098acbe0d98f5U, 0xbe0db013be39d46aU, 0xbdb753793e11915bU, 0xbdaed803be3076b6U,
  0xbc9505b8bde54719U, 0xbce3ce773e04d35aU, 0xbe4024e2bd2d9413U, 0x3c994424bdd2ede4U,
  0x3d4736f03d39884bU, 0x3e5203c2be02f414U, 0xbe62943b3da1b9aaU, 0xbd8559f4be1c070aU,
  0x3da4a6a83e093e3aU, 0x3c85a9ab3dac1537U, 0x3e00418b3df1fd15U, 0xbd07cd21bce1ab21U,
  0xbee0d5dbbd32f9daU, 0xbd9cf534be370a3dU, 0xbdf010463dd7b1e8U, 0xbe3047f0bea0f864U,
  0xbe037609bdae1dfbU, 0xbe8a96c33e03e3c4U, 0xbebdfb1c3dad8210U, 0xbdacfd2ebdd472f0U,
  0x3da604f83df17481U, 0x3e11d2cabdde9c70U, 0xbe548edb3eb0ef50U, 0xbdfb7c87be0910daU,
  0x3c8f6b3a3d3f00ebU, 0x3c4852debdd93f10U, 0x3cb57eff3dd85c71U, 0x3df21643bb12c045U,
  0x3ccc6ac3be1a9b1aU, 0xbdf1f634be0dfc79U, 0xbd2adbd83c20f9c3U, 0xbe05b657be538a5fU,
  0x3cc64316bccc0dfbU, 0x3e148c423d9b42afU, 0xbd88de753d716d7fU, 0xbd4b8386bdd8322fU,
  0x3e25beee3b03ccc3U, 0x3db95840be45256aU, 0xbe51558abdc15f83U, 0xbd21e7c9bd9fd719U,
  0x3dd6a7cf3e25bf6aU, 0x3cbf7a403dadb2c7U, 0xbcb4ed4cbc845368U, 0x3df0d1923b9957e3U,
  0xbcad113e3bef6064U, 0x3c84da993c9c6630U, 0x3ba6cce83e0110afU, 0xbbcfad33bdb6e930U,
  0xbc3daba33cdb88e0U, 0x3d2216c2bbb20d6aU, 0xbb0e34acbc6be5f3U, 0xbd6a3cbdbd8d6963U,
  0xbe450f45bd8c401bU, 0xbdde0f81be5795f8U, 0xbdbab012be1b35abU, 0xbe03b9c93de2d096U,
  0x3d689dadbe43ecfaU, 0xbd4fa61fbdf26e03U, 0xbc5f34abbda4f17dU, 0xbc78e3cebd6e1f57U,
  0xbe12a30c3e36e4ceU, 0xbc30489fbe57b2cbU, 0x3d914b7a3de951c4U, 0xbdff5ab6be721c33U,
  0xbcc6be3f3e01c470U, 0xbd726fd2bdcaebd7U, 0xbddf32d43d889a23U, 0xbda0ed2ebd4b6876U,
  0xbd277bd4bda306feU, 0xbd3a339ebdb9d641U, 0xbd9152373d2bed4cU, 0xbe1f8dd63e4b4f3aU,
  0x3d817868bd4917d4U, 0xbcb50e86be2db89eU, 0xbe142674bd49abbaU, 0xbc4fcf87bc66be1fU,
  0xbdb63339be624cb4U, 0xbc0f7408be22eafbU, 0x3cd8accb3dbe9c70U, 0x3d1110ffbd583eb9U,
  0xbdfdd1653df89be5U, 0x3bf4f2053cb12482U, 0xbe39077b3da3d278U, 0x3d26be553c506830U,
  0xbd9632203bcf7672U, 0xbe5f7b93be71c8f2U, 0xbdb0fc00be6ff9d3U, 0xbdf2b0ba3d2088adU,
  0x3d7c828ebdf410daU, 0x3cfe2cbcbdbcc19fU, 0xbdc3a4d1be46264cU, 0xbe068cabbdd6e91cU,
  0x3b2a9ce53901779bU, 0x3d082b1bbd36bfe1U, 0x3661b4d7bd183f95U, 0x3d7f7c2e3dc65d7cU,
  0xbc3b894ebbcfa65bU, 0x3bc979843e659557U, 0xbd913c693c98ab26U, 0x3c624107bdc5e92aU,
  0x3dac63c83bccddccU, 0xbc4cb65c3d493a68U, 0xbd8d26d8bb0fc931U, 0x3e1816dbbcb382d1U,
  0x3ccf51783cfdd5afU, 0x3c9e75f13d1be536U, 0x3dfb86e23d1913a5U, 0xbc2ec9d8bda0edccU,
  0xbb949420bd6f4d01U, 0xbb740d763b74d11dU, 0xbc3a33f9bde4f608U, 0xbd34cdb6bcbe180dU,
  0x3bfc1cc43d9cdb5dU, 0xbd83a9233cdbc8eaU, 0xbc9474aebb4dd534U, 0xbc821aeabd01e457U,
  0x3cf977e8bc89fd18U, 0xbc64817b3d014342U, 0xbd5826d93d873c1bU, 0x3e0205203d6bd2f5U,
  0xbca6fe79bd58ecaeU, 0x3a94a8f43d9ed826U, 0x3d0b66e13d60b8b7U, 0x3cf28411bd3164d1U,
  0xbb38c948bd48769eU, 0x3d8a6550bd902946U, 0xbb4c88afbcf56fe9U, 0xbdd950e93d3d6c8aU,
  0x3dee5db63d80df3fU, 0xbd8dcb913e3a01a5U, 0xbdcfa3b53cdabc5fU, 0x3d2f66efbd05fe4eU,
  0x3e433aaebb865b81U, 0xbdcb28383dc940dfU, 0xbdb066f43d67473aU, 0x3c9ccc9e3a5561dfU,
  0xbccaac5b3da2c0a2U, 0x3d32b6b83dbb5b70U, 0x3d477f6a3bc386c4U, 0xbd46fc38bd12fe05U,
  0xbc1bef3ebe2c0839U, 0x3d23bca8bd13b04fU, 0xbe04372dbdfe3dd7U, 0x3dcb7e823de3825eU,
  0x3dc7f8d6bdb9c97cU, 0x3d52f0383d9cee0bU, 0xbd7ab21b3b578e7bU, 0x3e04b7a1be0c566eU,
  0x3e31a927bca2b458U, 0x3db4590f3e501508U, 0xbc11039c3cf06a97U, 0xbbea0cf0bc546350U,
  0xbd124883bc8a8eabU, 0xbd49329d3d4b0c2fU, 0x3da373513d11a9d8U, 0xbd26ca6a3e78e62aU,
  0xbd95adbabdbb2ad4U, 0x3df2ffec3d2a28b4U, 0xbde9cc51bd328652U, 0x3dc18e973cb78c3cU,
  0x3cf1c6b03d0be12fU, 0xbc5fbc593e089252U, 0x3c7c50343b48d56bU, 0x3d974f5ebe054c90U,
  0x3da58b3dba4aa3ecU, 0xbda7058bbb1c70e6U, 0xbe05091d3d51c42eU, 0x3d8da25abcc0b5deU,
  0xbc963e1b3c99d764U, 0xbcdbb946bbc62f72U, 0x3d1247fdbcf996a7U, 0x3c727be83d8a4795U,
  0xbdc4d165be231f94U, 0x3e797172be122523U, 0xbd33fbe3bc694056U, 0x3e8a2e233ca2f75cU,
  0x3d831f103d82df96U, 0x3da7cc4bbd5ecb3dU, 0xbe158e9c3c792c87U, 0x3e0129d9bd4f5d3fU,
  0x3c67ea2e3d7dd0adU, 0xbe02939f3dfcf5b4U, 0xbde44ec23c17c96aU, 0x3c5c615fbe255d16U,
  0x3c3b1e6ebe191486U, 0x3d21fde4bd8ef259U, 0x3e3ba429bcf816c1U, 0xbdddf5a73d96a252U,
  0x3cdff1eebd985b97U, 0xbbd5c90b3dce7088U, 0x3e530a2bbd1e9176U, 0xbdb58d40bd65bea1U,
  0x3c81660ebe33dcc0U, 0x3e6a5d71bc5698d2U, 0x3cf10535bc2e91a7U, 0xbcef23bdbbe8711aU,
  0x3e3c2b893d940381U, 0x3e100f493db51d2dU, 0xbe22f344bd407165U, 0xbd1ca1dbbd4b1f8aU,
  0x3e0244f5bbfd09e5U, 0x3ddfd4d2bcd58ab0U, 0xbddbf0203d721a57U, 0xbdec8ae9bdc14b44U,
  0xbd39bc89be1878ddU, 0x3d2e2155bd915590U, 0xbd1eeb143d37919bU, 0x3a96a2103d9349c7U,
  0xbd2972f3bdfd05ceU, 0xbcd2b0643e1bd791U, 0xbe2f7eeb3cd6464fU, 0xbc14d932be2747c3U,
  0xbc8f4c18bd08a022U, 0x3ce436f33d04d4f9U, 0xbd93a766bd05345eU, 0xbdb61ac0bdf28be9U,
  0x3a02acd0bd268f09U, 0x3dc1b165bd178f96U, 0xbdd7f769bdda4c45U, 0xbe126bdf3d990241U,
  0x3c5b30a4bc5a3302U, 0x3daea6a63ce9e5c9U, 0x3e362cffbd721d63U, 0xbd970d043dde9960U,
  0xbd09985abde0501cU, 0x3e2dc27f3ddf3623U, 0xbd1474cabc9917b7U, 0x3b0a10a3be66c635U,
  0x3daa64e6bcceb837U, 0x3db0ef893ddbf071U, 0xbe2b6b8a3d453242U, 0xbe1cc2e53dc8b3b4U,
  0x3dff6805be0b1384U, 0x3d82b72cbd530721U, 0xbd187999bdc77fd5U, 0x3d4bff12bd7d42efU,
  0xbd955bae3d0f2817U, 0x3d8909dabd8fe2dbU, 0x3cb75d4b3dac46d6U, 0xbd9ea0b43cb3f5faU,
  0xbcf418eabaa7cb96U, 0xbc23d9343e6ff222U, 0xbd22f2963d718351U, 0xbcafededbd6ec82dU,
  0x3d0129cbbd78e19aU, 0x3c4dc1a73d4f2a8bU, 0xbdba99b7ba7b27feU, 0x3cf0f5e33cce4581U,
  0xbd07ade13d1f7797U, 0xbcc9386e3d2332d4U, 0x3d3acfc8bdce8362U, 0x3d0d60d9bd047cb4U,
  0xbcbe8008bdb1ceebU, 0x3c08ea4ebd8456e0U, 0xbdab94503d9cbbc3U, 0x3c95acb13d2c0305U,
  0xbdb2a2d0bd7d56d2U, 0x3d1afaa43d495b0cU, 0xbd1592f53d062b97U, 0xbd4da546bc1ea1faU,
  0xbd209310bd5ea06eU, 0x3d1b2be1bb2e087fU, 0x3ce7c5363dd69c8bU, 0x3d896915bd027f29U,
  0x3d8168d73d3f6fdaU, 0x3cd83f823c899ae7U, 0xbd8ce5113ca8ec91U, 0xbd6629d3bd331437U,
  0xbbba1a8fbcf93993U, 0x3d508fbabd0c11bbU, 0x3b5a08e43b9f3863U, 0xbd15265bbd51b84fU,
  0xbcb7f012bdd75f40U, 0x3c857aa63d7e8a6fU, 0xbd1cac6d3dcc8bb2U, 0x3c6b4e693cc64664U,
  0x3c552857bd4f082bU, 0x3c16e4be3d83f7efU, 0xbdb5243d3dd77aabU, 0x3d69f4aa3c836909U,
  0xbc1e4ca5bc16923eU, 0xbcd7ff0cbcac532aU, 0x3c7e005f3c665eddU, 0xbcb794063d01b777U,
  0xbe1306d3be16c9ddU, 0x3d5fa395be2d70aeU, 0x3b91b953bcc7b54dU, 0xbcabdeb13c03cf9fU,
  0xbd99cb193d8b196cU, 0xbdb8dcf63e5ffe3fU, 0xbe332e183d6dc8afU, 0x3cdba8d13c8ed7f2U,
  0x3e19a1683d4570d9U, 0x3d21e6963d976057U, 0xbc13b54a3d7e2859U, 0xbd15c7b33c7a5390U,
  0xbc7709383b475127U, 0x3b10b4a2bdb33a29U, 0x3ce51f0dbd2388ccU, 0x3c95d13e3dc9d141U,
  0xbe015fb3bda31b01U, 0x3d90219cbd822d58U, 0xbd6b228f3d875612U, 0xbc324182bd1878c0U,
  0xbcae56a7bd24016cU, 0xbde757153df6c093U, 0xbcb728d63aebd38fU, 0x3d4875e53d04d526U,
  0x3e4eae9c3d013902U, 0xbcc376f6bd9408a1U, 0xbe1895eebd4ef489U, 0x3bd16315bd09ad1dU,
  0x3d56c917bd83210dU, 0xbd1e7d8fbd36ef1cU, 0xbc09dfe6bd29cdc5U, 0x3d419392bde13077U,
  0xbe0aa16fbe00de3dU, 0x3bad15e2be2c5f00U, 0x3db41dc2bc8f51a1U, 0x3db6d5b1bd1d9436U,
  0xbc757324bca9818dU, 0xbdc7b5403d71126bU, 0xbe2ad9c83dc41b8eU, 0x3cdf33c33de83f65U,
  0x3e3603cc3d19caaaU, 0xbd1809a13d6c06d0U, 0xbdbd764e3dae1297U, 0x3d40e07abcc8afcaU,
  0x3dace9cebdaf788eU, 0xbd794d14bdcca6daU, 0xbcb0e9e1be6006b5U, 0x3ceb107cbcae73a5U,
  0x3d955803bd62b47aU, 0x3dae1de53dc327acU, 0x3d4a5dbebdf3e1b8U, 0x3d8a5cc23b300b4aU,
  0x3c833fc9bd82f096U, 0x3db656f9bdc8c27cU, 0x3def0fc5bda03b98U, 0x3bbaf2df3d980fa6U,
  0x3da8086b3d611217U, 0x3d3cca3a3d4da4f2U, 0xbc7e8909be0e554dU, 0x3cae02fb3cdb8f9cU,
  0xbd9d9c88be2071b1U, 0x3d373cd13d6588ecU, 0xbc657fee3d4d7267U, 0xbdb21345bd652ed0U,
  0xbdaa2a3dbd21e7e7U, 0x3d72f0b23d491823U, 0x3d8f55493ccfca67U, 0x3cc2d652bcefc894U,
  0x3cf1e26dbe0be1cfU, 0x3b91aae63d22b16cU, 0xbd215067bc09ed1aU, 0x3d79ffa43bb8b3a2U,
  0x3d0b71753c3faa0aU, 0x3d7242fa3d6e50cfU, 0x3aa9982abd1fea61U, 0xbd556fddbd573c7aU,
  0xbcabc49dbe0966a1U, 0x39da5db03d9e41b8U, 0xbc704c073c7fd3eaU, 0xbcca5647bc9b8597U,
  0x3cca2f293d0c07ccU, 0x3cb4db0ebbb23b7bU, 0x3d137b99bd4b1cd6U, 0x3db6d3713d4905feU,
  0x3da47740bbb14ed7U, 0x3d05d8423cc93b95U, 0x3d681b273be5b51aU, 0xbc73e2303d30c922U,
  0x3d9f90883dc67106U, 0x3d8850313da9d151U, 0xbd7f0aac3c7ca6f1U, 0x3b00a625bd8b0737U,
  0x3d110d9bbdf1979eU, 0xbbe542373d269bceU, 0x3a85f24e3def3a14U, 0xbda9819ebdd3d25dU,
  0xbcaddfe7bceffe05U, 0x3dd15a60bd2aabc2U, 0x3c2a8faa3d09c26fU, 0xbcd7e8863d1206dcU,
  0x3b344af03dc31b2aU, 0xbd8800f13e19114fU, 0xbd9264b33b11ff27U, 0xbcc348553d166135U,
  0x3c8791233b0b9a80U, 0x3d2340843d952399U, 0xbd9ff5a33d6fe2fcU, 0xba0ad58d3e0774e6U,
  0x3c9505aabcfecc8dU, 0x3d312b3e3d9aaf2aU, 0x3d0f9497bd193e59U, 0xbd464580bbd0683bU,
  0xbc741aa0bd1674c4U, 0x3df30d1fbc041b69U, 0xbcfc3186bccff40bU, 0xbd5381583a0ebfbbU,
  0xbd3306f6bd044851U, 0x3a8e249cbd00ecf4U, 0xbd4e5a883bdeb255U, 0x3b8b5faabd50c3d3U,
  0xbdae9e903cad77b7U, 0xbd8b8e873d3f5f5aU, 0xbd50e370bcb49f90U, 0xbd0338df3df5c504U,
  0xbd19e0873db60c17U, 0x3d232b4d3d8c22d4U, 0x3bd861f1bd832f6fU, 0x3cb8b38ebd82ecccU,
  0xbdb0e7fbbd603538U, 0x3da88ce2bd31f184U, 0xbc036f3f3d00a61cU, 0xbd8c0669bd229da7U,
  0x3d628683bc9782f3U, 0xbd89a925ba01d215U, 0xbcf809843ca03117U, 0x3d6f169cbacb7442U,
  0x3d7786dcbd8add79U, 0xbda9f2723d7abd22U, 0xbda41c6d3dfb53e6U, 0x3ccbd89d3df45a86U,
  0x3d6fa3763caaf829U, 0x3d79ccb23d925d52U, 0xbc31a9143d2002dcU, 0x3b8a407dbd23babbU,
  0xbe0d99c7bc90f7ddU, 0x3def03e23d01492fU, 0x3d76709abcca7e0eU, 0x3e2ac1063e05d510U,
  0xbc3390dfbd31d8eaU, 0xbdd73ebc3e3637a6U, 0xbe0a1d453d9af78dU, 0x3e27e94d3e4f7c45U,
  0x3dce540e3bcc64a2U, 0x3d1356303d1e1e4cU, 0xbc3a07f73d3e66baU, 0xbd681aa7bdf3c576U,
  0xbbdad6dc3dad5adcU, 0x3c04fda8bc8e4f94U, 0xbdc0b2e93c4d53d7U, 0x3c4a99123dc7e4faU,
  0xbba43eb2bd73932dU, 0x3d85ffb33b2e0ae9U, 0xbd88d86abc12b839U, 0x3e2905323d7ab933U,
  0x3d6fc853be84ee35U, 0xbdee23873db1476cU, 0x3d8ddae73cc694d3U, 0x3e1dcd8f3db70ff6U,
  0x3e0b5ae83d194e89U, 0x3b7ea4a23c6f8a65U, 0x3b55d21bbd046bc1U, 0x3c676325bd4d07baU,
  0x3da5a2633d16c8d1U, 0x3d18cadbbda43b2dU, 0x3baca108bcb66d52U, 0x3d9376adbc4794ccU,
  0x3d24c86ebdd34deaU, 0x3e0d7700bdc3d0caU, 0xbcfdb4993c1429b7U, 0x3e4454b93d1b01dfU,
  0xbc61bab3be03ab98U, 0xbc99b3c6be00f3f3U, 0x38c42c943daf33c6U, 0x3e5ee0ed3d5f5e09U,
  0x3e1562f5bd49d230U, 0xbd71d01f3db8f626U, 0xbdf4aef9bde7e53dU, 0x3cfd1627be534306U,
  0x3dc7282a3cc09643U, 0xbd0e6886bbe84429U, 0x3da85542bd94da97U, 0xbcc122823da71797U,
  0xbc9a27203cd33511U, 0x3dfcf4d93e4b70c7U, 0xbcd095e0bde4d570U, 0x3d6123f03d3993bfU,
  0x3ce154163d558d02U, 0x3c9db88dbd6a315eU, 0x3e4551363c1408e0U, 0xbd0481753de2738bU,
  0x3c82facf3d518898U, 0xbcf026f03c32bd02U, 0xbda0625abca9ec0aU, 0xba8cd24fbdd00e22U,
  0x3db5eddd3d93e5dcU, 0x3d2f43b73d4a52bcU, 0x3d93c2573dda4061U, 0xbdb517fdbd43f0e2U,
  0xbd5b09c7bdd81355U, 0x3d394a52bcd7fdc1U, 0x3d059d543cba13b3U, 0xbd7e1febbd7d6ab0U,
  0xbce81a1ebd97b412U, 0x3d8bbffd3da2b714U, 0x3cae04753cde5592U, 0xbccedabcbd1bba46U,
  0xbdeaf8243ce7d208U, 0xbd691008bca13e28U, 0xbdc9fd2b3d045a77U, 0xbe0ed042bcb1e3c3U,
  0x3ad3c2f8bdefa23fU, 0xbddc573f3d969491U, 0x3d3401e23cbb3619U, 0xbd8bae2cbd2fab20U,
  0xbcf35bb2bc72b659U, 0x3b969455bd616826U, 0x3e25c8103cc202bcU, 0xbc2178713d2cd0a7U,
  0x3d4bdf62bd85c769U, 0x3db6d33c3c947db6U, 0x3c746d4cbb0ead68U, 0xbd29d31a3a1f3296U,
  0x3d2989333d82fbf6U, 0xbd453e133d03675dU, 0xbd388f3ebda60099U, 0xbdc5619dbddf8727U,
  0x3d1b1bddbddd88f7U, 0xbd46f95e3d298f2bU, 0x3d89decd3d306a44U, 0x3cffe595bdafb5b2U,
  0xbd983a573cbaf10dU, 0x3e13a4a63c19786cU, 0xbb858da13d1747e7U, 0xbd0a5958bc07c48fU,
  0xbc96034c3dbf071cU, 0x3ace8533be4f62f2U, 0xbdf903d93d460584U, 0x3d684e81bb355d43U,
  0x3d47fc643d898866U, 0xbd263bd8bd5cc321U, 0xbe1c13e0bcd55485U, 0xbc8496a53e5c6da1U,
  0x3d43aff2bd62e98dU, 0x3d01826a3d323d46U, 0x3d142e1fbda15671U, 0x3ba5e667bd5c71abU,
  0xbc85391cbd93eea2U, 0x3dc4c378bdb530d4U, 0x3cfe3f923dfbbf5cU, 0x3d2d0cac3c823a7eU,
  0x3d90da92bc720a1fU, 0xbda37a8c3d296921U, 0xbd9662de3c119a59U, 0xbcad39f73d0c185dU,
  0xbcd429c2bd420642U, 0xbd46d0ab3c28ae96U, 0xbd7319e4bcdcac8eU, 0x3d7ea97e3e2e0ce4U,
  0x3d826506bcfbf155U, 0xbb288ff03d15313cU, 0x3c0bce06ba996f0dU, 0xbba04d09bd9bbb5aU,
  0xbcfe7bbebbb78de3U, 0x3de9a94e3a532415U, 0x3d3b34533df5f49fU, 0xbd95cde3bc88607bU,
  0x3c50ecb23ca5c353U, 0x3c4e658cbd66641dU, 0xbddabbc63d5fc637U, 0x3d889be83b4f3e21U,
  0x3af09ebdbd81c30bU, 0xbd33d757bb81e934U, 0xbdc052ddbdac3fcdU, 0xbc1574fc3e1150feU,
  0x3d45cfe93c738e58U, 0xbc72bfb03dbc9112U, 0x3d9822923d2ebe36U, 0xbc82dde8bd780ec8U,
  0xbd86f7ce3c0897b7U, 0x3db6ff69bd861f1bU, 0x3dfeaeb93d9421d6U, 0x3e1769a43cb6eee1U,
  0xbd86d8063dd716b9U, 0x3d8ed4823dd0988cU, 0xbe2ca76d3dad96bdU, 0x3e06ac85bbf52317U,
  0x3d0b8b723d8091baU, 0xbcffe7473d8cf176U, 0xbe4f1460bc63d020U, 0xbcdde8a5bc65361bU,
  0x3dcc3e25bcd280cfU, 0xbb39dc91bc87cff5U, 0x3d80c721bd7e5e2dU, 0x3da6eab4be2e1d27U,
  0xbda291cd3c6565d4U, 0x3dd2d856bd44d038U, 0x3d96b1743cfc78d7U, 0x3e0d346d3c50e8c1U,
  0xbc700df53d64011eU, 0x3c6c59dc3ced86a6U, 0xbe39aa013dc7f371U, 0x3db8088a3dc6485bU,
  0x3e0531453da185b4U, 0xbd4a20aa3d801f4aU, 0xbe3e7eabbbd83ec1U, 0xbc12382ebd2b7a84U,
  0x3cbc3bbbbc96e5fcU, 0x3d86fecd3cfcceddU, 0x3d2511aebd9f5c50U, 0x3c65b1f2bdd35beaU,
  0xbd0b56e5bd4448ccU, 0x3dcc64d63c3b210fU, 0x3d071851bca62cc1U, 0x3e5cf0d73cf5f61cU,
  0xbd1524aebd2c4a2aU, 0x3d5699cdbc5273baU, 0xbdc2277bbc0ecd78U, 0x3e66c6663dd15ef3U,
  0x3c76c8dcbcb223b0U, 0xbc2f969bbd3b2daeU, 0xbe215991bdf6d5d0U, 0xbc5943fcbd06c276U,
  0x3a313123bcbef5c1U, 0x3c3bc493bcfa2fb8U, 0x3db479f1bdfdb503U, 0x3d21c27ebd814c30U,
  0xbd0fdababd577a20U, 0x3d6d0df43dcfbc77U, 0x3d140f65bd2e4e05U, 0x3d55b9143d046c5eU,
  0x3d8c7f2f3caf087fU, 0xbb9b9a37bd8c66f9U, 0x3d19c930bd2d02e1U, 0x3d7428633d0e4209U,
  0xbdd033f03d3f0620U, 0xbdc9e93cbca47a00U, 0x3db344243a31fbffU, 0xbcc78a023d692a77U,
  0xbd5e3fd3bd5d8472U, 0xbcde9d493dfa9a6fU, 0x3e08d2403e10044dU, 0x3c0085363d259586U,
  0xbbe8d8283cddd79bU, 0x3c823a683da1c33aU, 0xbd1320e6bdfece4cU, 0x3d027e913cb2e9e0U,
  0x3deac94dbba1663eU, 0xbcb46965bd24977bU, 0x3e03ba603cbe90b8U, 0x3d35fb703ddc4e88U,
  0xbdabb546bd5239c7U, 0xbd4f361c3bf248a2U, 0x3d8f10ce3bffc901U, 0xbdc0b12dbcbc40dfU,
  0xbdb46a20be26e794U, 0x3c89f9893e1a7f87U, 0x3d7523ef3d9b66ffU, 0xbe00922cbb800cb7U,
  0x3ce0096abceb39beU, 0x3be07306bc9ff0b7U, 0x3de9b357bc88201fU, 0xbd5b7972bcce5f69U,
  0xba261e8bbd17caf2U, 0x3d9c741c3d4efebfU, 0x3d239803bd72a086U, 0x3d8bc1c43cb1250eU,
  0xbcf04711b95e99f4U, 0xbd920d753c937340U, 0x3d0a8727bdaec723U, 0xbcd14a12bdc82073U,
  0xbd60f550be0760a9U, 0x3ca4d5bb3e0ec74dU, 0x3d4a8ce13d932c63U, 0xbe2043253d6fb542U,
  0x3c10cefcbdba690eU, 0x3dca9c5abc9e3a6cU, 0x3d1c147d3c102499U, 0xbd9999e93da3617eU,
  0x3a845564bcad2e16U, 0x3d825a24bdeacba1U, 0xb79b5b8f3d0d4d7bU, 0xbc12877a3d15c462U,
  0xbd02bdd6392265eeU, 0xbcad130cbd1ed11eU, 0xbd4f5bde3cbf55a4U, 0x3c18d7543dc21e02U,
  0x3d50b022bdeeed5dU, 0xbd00fc573b9656e1U, 0xbdab0457bbc7f89fU, 0x3c051b43bddbe59dU,
  0x3d116f97bd9897c3U, 0x3dad7e79bd8fdeedU, 0x394f670f3c4809bdU, 0x3d40443e3cca2baeU,
  0x3d9d58eb3ce1993aU, 0x3dd3f66f3dca8cf1U, 0x3dbe9c4d3d170b4dU, 0xbc828d4dbd47c540U,
  0xbceeabefbc820862U, 0x3cef6e1dbdbb44b3U, 0x3d789cb4bd8f879cU, 0xbb8907c63c2b19aaU,
  0x3c5bb4343d041c9bU, 0xbc8b4b8cbc934a15U, 0x3d005c3ebd4b41edU, 0x3ce428e3bcc20badU,
  0x3ddb4ad2bcc642cdU, 0xbcc2ce73bc116c32U, 0x3b4414e93aa6476fU, 0xbd1b888b3cbfe618U,
  0x3d738da43c898b6bU, 0x3d8a13ce3d417da0U, 0x3de9c29d3c839c58U, 0x3db11b0cbdaef6deU,
  0xbd9bd356bdc48427U, 0x3df396a8bdbf7d06U, 0x3d943af7bcd41d1fU, 0xbc46e600bd4f1158U,
  0x3d82d9453ddb79c5U, 0x380b67f1bd313af0U, 0xbd7ab83c3ad7a508U, 0x3df7887bbd95e1c0U,
  0xbdefa7d13c685ecbU, 0xbd6493a83e654d43U, 0x3d75565c3cad6c53U, 0x3d947a403dbf03a9U,
  0xbdf0fd213bf0e869U, 0x3e13118dbe0cf3d3U, 0xbddeb230bc806d4bU, 0xbb9637e5bda3ee6eU,
  0xbe193eabbcc09725U, 0x3d32e2d93da2e02eU, 0xbe05e0a4bce8e2b6U, 0x3e66a5973ca7ebccU,
  0xbc42b6313d771816U, 0x3c532102bc36b2c8U, 0x3d712c0e3d392de2U, 0x3d833defbe42fe94U,
  0xbe586822bd9359a3U, 0x3cd98c163e2fb03dU, 0x3d9e02f83dc020f9U, 0x3da3c1023bc05c6cU,
  0xbdfe1af53d7ab45eU, 0x3e15e907bd053d69U, 0xbe5351853d85019aU, 0x3da54cd53da9d2d0U,
  0x3e15cf8c3e2110b6U, 0xbd8e010dbc881429U, 0xbdfa6fdf3d837068U, 0x3e94aec33e43dd1dU,
  0xbdbe5da03dd0bd24U, 0x3dda05a73d3bf294U, 0x3c233a63bd1745baU, 0x3d977b8cbe85ae6bU,
  0xbdfccb4239297f7cU, 0x3d59c3f93e6053a0U, 0x3d9e85963e5a0b86U, 0x3d2653b3bd9477b5U,
  0xbe0655fc3c9a1161U, 0x3e5552b03d136b3dU, 0xbe0e459b3d8afd15U, 0xbd804e993d73319dU,
  0x3d8b1f1c3c2d9c48U, 0x3c9429743ca47a9dU, 0xbd669539bd7c5747U, 0x3e5d0e593e2e71e4U,
  0xbb2951623e333179U, 0x3d37efd5bd9f6bedU, 0x3d5cf167bd8439caU, 0x3e62b841be2d2a4aU,
  0xbccd2712bd338fbcU, 0x3cce088f3c8fc18cU, 0x3dfa6f65bca9c393U, 0x3ca389a63d37e939U,
  0x3b9c8004bd7a7b95U, 0xbdbf0edd3ba503e1U, 0x3da643ce3c1f6cbbU, 0x3b8b8d6e3ddf1c2eU,
  0x3deaf2aebaf95b02U, 0xbdc438c43d332bb3U, 0x3ce8fb423dab1595U, 0x3d94a8f6bc54ce9eU,
  0xbdd6cdaabdc4a3b9U, 0xbd8f9a193da5ca00U, 0x3c8a47c43c9e72f8U, 0xbd2376cabcc4ff53U,
  0xbc1aeca03c2b7a02U, 0xbc9695183cc58b03U, 0x3c5fd709be3ca38cU, 0x3ca16b97bcab6645U,
  0x3c7d64b8bc4043b4U, 0xbc34aae73de5de58U, 0x3d4163bebd0546d6U, 0xbbe373243dd068f8U,
  0x3dab78d7bd86f5feU, 0xbdb81d13bc814787U, 0x3a6caa983d178706U, 0xbb1c9884bdc58b7bU,
  0xbded51a2be299198U, 0x3b9ddb533d6631c6U, 0x3d36b89a3dd29cd6U, 0xbe0cfedc3d62e25bU,
  0xbd1f1d7a3bee6b54U, 0xbd7a7459bc3f8102U, 0x3de75e85bddecb7fU, 0x3c2fe4ebbdb20d51U,
  0xbcae61243cabc4d4U, 0xbd81b45b3dd16139U, 0x3d8d0f56bcf4ec7bU, 0x3d802e553e0e9e09U,
  0x3dcdc3693c539fa7U, 0xbe3adec6bce2ccedU, 0xbd6138853cfa1bd9U, 0xbbd65606bcd22de5U,
  0xbe01d216bd636a4eU, 0xbd864b903db3fe12U, 0xbc5717e13d4bd370U, 0xbd98c5773d563b6aU,
  0x3c9d3949bd2689cfU, 0x396b8fee3cd6a4f3U, 0x3c5c57ecbdda5646U, 0x3b61500a3c4ef2fdU,
  0x3a036abf3babb092U, 0x3c036e0dbc5b2915U, 0x3cd5ed7bbc260805U, 0xbc47441d3d8712abU,
  0x3d8147263d420690U, 0x3d90a3c83dae91bdU, 0x3d6cd74f3d88dd97U, 0xbd4784b23c6961d8U,
  0x3cb7582f3d08005bU, 0x3d6dcf463caeda05U, 0x3bd984d03cdaf4c1U, 0xbdb769823cfade55U,
  0x3cffb25c3c1cd31eU, 0x3de80c043d0618e8U, 0xbd927882bd9717a3U, 0x3dde96ad3c26a2dfU,
  0xbb950afebd02bae3U, 0x3d72136f3d1b5e69U, 0x3caba7a63cd43510U, 0x3d6420d43d617150U,
  0xbd8f817dbdbbe18fU, 0x3df1b9603d1f1851U, 0x3c679253bd296166U, 0x3d53ff83bd1e75a7U,
  0xbce28ad43da8e3a0U, 0x3d515ddc3d6599b6U, 0xbdb33d8a3dcd5aaeU, 0xbd3bcb13bc502c78U,
  0x3df466ee3deb9b6dU, 0x3c9e1f58bbff4a72U, 0x3dac369abcca4dd1U, 0x3d7b909d3c40c97dU,
  0xbb961be43d82a233U, 0xbd4dacb6bdaa1e83U, 0x3d3e95fc3d65fb7fU, 0x3d80ff4dbcb2457fU,
  0xbd62c34abda1bab4U, 0x3de8a8eabc7cb657U, 0x3dc5be523ce411feU, 0xbd8e75b4bdd62d73U,
  0xbc78afa83c3fc05bU, 0x3d869bbabc92b479U, 0xbd5a53e93c7e63feU, 0x3dbf2d1dbc36ce93U,
  0xbde5d763bd0149b5U, 0x3c16a986be01231aU, 0x3be0eeef3df8faedU, 0xbcc2ce3ebd9c2b7bU,
  0xbd6fd2b4bdf56a2aU, 0xbd57edb53d9d49e9U, 0xbe0f662c3c6bd715U, 0x3d073d813d2e92cdU,
  0x3d25a53c3da732eaU, 0x3e419553bd8537c5U, 0xbdf3bed8bb5fe269U, 0xbd3757b7bd43cd24U,
  0x3bbff21b3d50a9d1U, 0x3cf1c7583c5c5f28U, 0x3e30bbc33d922a16U, 0x3d24507e3d711846U,
  0xbe827024bdda295bU, 0xbce4b780be01bfa8U, 0x3d80376c3ddb448dU, 0x3c7c160bbe39520dU,
  0xbdc80a15bc9ed2f8U, 0xbd92c44b3e262be0U, 0xbe796e743dd2ae34U, 0x3d1ae0e03ca4776fU,
  0x3e02ffcc3e3bc0a1U, 0x3cd9aa97bd4d631dU, 0xbe023f7c3e526a2bU, 0x3d83c72fbdc70c3bU,
  0x3e002636bcb68f53U, 0x3baae31f3d773ec2U, 0x3dca0ea53da94e1bU, 0x3e101eff3d344c5dU,
  0xbe2c9b93be00ad7bU, 0xbd36b7ebbd699d46U, 0xbd617aeb3e4a7cb0U, 0x3d704a35be136fb8U,
  0x3d041101bd6ceb06U, 0xbcf0f8e23e36b8a4U, 0xbe272b933c2e9310U, 0x3c4634dabb9be2e0U,
  0x3d6d265e3dbfb7acU, 0x3c8a2532be7e3c91U, 0xbe8694dabde7a52aU, 0x3d0dd512be35f134U,
  0x3e067f3c3daf5a6cU, 0x3caa3c743d14f10fU, 0x3e06479a3cab0f0eU, 0x3e01f665bda3d6c4U,
  0xbd0cd11ebdac2db0U, 0x3cf9f22fbc6d540bU, 0x3d4823fe3d148677U, 0x3da2daacbcfa088dU,
  0xbd1671f73ae6ebacU, 0x3d54f0fa3ca6225dU, 0xbc925db63e09c674U, 0xbd279a52bd1dbe81U,
  0xbde67d313c34bbc8U, 0xbd8109f9bdea0c76U, 0xbdb9463abe14d306U, 0xbe1ba4a63d569f41U,
  0x3d3c29babe11e437U, 0x3cbbc9f3bd6b5e08U, 0x3d4b2647be0e7390U, 0xbd10615d3ddd74e9U,
  0xbe175f4bbd3e7c74U, 0x3d732351bdb5d4d6U, 0x3d617e483d6c3099U, 0xbddb02eebe31ff27U,
  0xbd38522e3c783185U, 0xbdfafe3b3c2bdebeU, 0xbe0840ef3dc813cdU, 0xbc8a5701bddd1274U,
  0xbdc30d8fbb866964U, 0xbe10bb06bda1f363U, 0xbe04c3acbc057018U, 0xbe08381f3d774121U,
  0x3e338245bde2e021U, 0xbd821b1abdc29413U, 0xbd4572c6be1f8212U, 0xbbc28d9cbbd5197cU,
  0xbda85ba6be63407fU, 0x3bf93cbf3ce6d5b9U, 0x3e30e7003dde385aU, 0xbdb67ad5bd6159bfU,
  0xbddafa96bd9a0df0U, 0x3d7447adbcd6af31U, 0xbd94eb673dcd2c71U, 0x3b89bcd13cafe469U,
  0xbdbbaedcbc855777U, 0xbda9b398bd9c87bcU, 0x3bd366a7be63bf3dU, 0xbe68055e3e04678eU,
  0x3dea5d1fbe2e0276U, 0x3d06721abd520f95U, 0x3c6f5361bde45829U, 0xbe3db71a3c7c88eeU,
  0x3cb8f97f3c1509bcU, 0x3d555ed63c67f800U, 0x3d094f9b3d24343aU, 0xbd63c21b3bfa3b2aU,
  0x3d32afdd3d949926U, 0x3d00361f3e0713a1U, 0xbd6f84743ddc0a29U, 0x3cb3525c3d58188eU,
  0xbcab2f8f3cec6d3fU, 0x3c27c0ad3d2b7129U, 0xbd74260dbd241241U, 0x3d1e8ec93ddf7d1fU,
  0xbcb0e610bb2c484aU, 0x3c8396c53c99a780U, 0x3dc56625bc702b11U, 0xbd8322663ba1baccU,
  0x3c43e10bbcbf3556U, 0x3c86bd98bdac32a5U, 0xbcf380b6bb27c5deU, 0xbd65e6613cd50ea4U,
  0x3d287adf3da5a57bU, 0xbd97f7bfbd3bae5eU, 0xbc3e819a3d87244dU, 0xbd19e270bca657d4U,
  0xbca8a214bc48c08dU, 0xbd684e24bce77496U, 0xbd0507793d758ef4U, 0x3cd676b13e0979bdU,
  0x3db093bfbd5ba3e6U, 0x3c9dafbebc1fafd4U, 0x3dbca3b0bc8e079cU, 0xbb9a05133a3e9e5dU,
  0x3d663b8dbcbdef50U, 0x3d3803ffbdd80cf2U, 0xbc98be27bccda8e3U, 0xbbffa1c43cd5f15fU,
  0xbce2dc923db1ba51U, 0xbd8897b83d3456d7U, 0xbd1036543e070fc9U, 0x3d5f3587bb7f0199U,
  0xbcfb1a2b3cfc6ff1U, 0x3c44b3123d54b71cU, 0xbddaf7dd3d0eee10U, 0xbcb448123dd666c3U,
  0x3dd75086bd370188U, 0x3d68a9883cd7b5f3U, 0xbc0b9a393d9c2d3aU, 0xbd0483f9bd499fbbU,
  0xbc36ef793d81b863U, 0x3da699f83d7f2b6bU, 0x3bc5b385bd524ec0U, 0x3e7811093d8266deU,
  0x3aa2c2e2bbe0fd4bU, 0xbd10a4cb3e0f60b3U, 0x3c6144ac3d115188U, 0x3e79733c3d1ff4d6U,
  0x3d3ea9cc3c84a3d2U, 0x3d042cae3da8afd6U, 0xbcb369df3d8e6136U, 0xbc9c930fbddb138dU,
  0xbb8bffd0bd1c28fbU, 0x3d0c8f82bd56739cU, 0xbd92250fbd742146U, 0x3d493a303cad0eaaU,
  0x3cd92542bd6e574aU, 0x3e0544993bd0506cU, 0x3ced19fb3c6fa742U, 0x3e036f153d878abbU,
  0x3cf3b6d1bdbcb0c9U, 0xbc58b1493d9d9c88U, 0x3d03a3e9bcb66e45U, 0x3e16abf13da283e1U,
  0x3da62624bbe8d08eU, 0x3d540ef63d9820c5U, 0xbcc8947ebd5f50c5U, 0x3d2a5190bdbc7d46U,
  0x3d5316e83d1497b8U, 0xbd91e293bc753656U, 0x3d033a08bd72b5a5U, 0x3ce80142bda97130U,
  0xbd6a7754bd22b6ecU, 0x3e1a08873d12b246U, 0x3d23f3d43d34cd63U, 0x3e10bb8c3d65763cU,
  0xbc957591bd02ab5eU, 0x3c4485983bfd30fcU, 0xbc69af783d2591b0U, 0x3e6ae23a3e18de16U,
  0x3cc59a58bcb2cc42U, 0xbcf281e03dbb328dU, 0xbd5f0cedbd54a59aU, 0xbcbd3be0bdd13933U,
  0x3b4d745ebd74e2d5U, 0xbd9b04e4bc9f1612U, 0xbd35cb14bdc354c7U, 0x3cf4aa10bc975a01U,
  0xbb2189e6baac3346U, 0x3d5161acbcd11fd1U, 0x3d6b5901bd621f3cU, 0x3da32d21bd48c01fU,
  0x3b1fd4b9bd61b9b4U, 0x3cfc6ece3d252531U, 0xbd26426bbc734df4U, 0x3b6d3cce3cd46bcaU,
  0xbce8b020bae41793U, 0xbd1b655abd48d0a8U, 0x3d1159f53d0d5c9bU, 0x3c3e4c3ebd5bd05fU,
  0xbc9981e2bdd4cbe9U, 0x3d6d4b953df53afcU, 0x3dc99cc63d93c4adU, 0x3b57b5253bc322eeU,
  0xbd7d0be6bd2b6ecaU, 0x3d8cd4ecbd282c10U, 0xbd4eb9b43cfb847fU, 0xbc7ec35ebd1b25c3U,
  0x3d8ea0dfbc4d497bU, 0x3d1730723c5328bbU, 0xbccbc637bcd73a61U, 0x3d63b3bcbc9ecfc7U,
  0xbd1746c5bd766afaU, 0xbd4c17ffbd4dd70aU, 0x3d71c3f53c4e6cc7U, 0xbbf19bb3bdaef2fbU,
  0xbc14b931bd8a9513U, 0x3c47019b3d47507cU, 0x3cc734c03bbc8581U, 0xbd2768ecbd36c765U,
  0xbd93267fbd0bfe8aU, 0x3c920c3c3d229abeU, 0x3d1448a7bb35c856U, 0x3da3dd523c9abffcU,
  0xbbf014953c2edb4cU, 0x3b171fcbbd9c8c79U, 0x3cbe3bfcba026e3aU, 0x3d8af77abc006012U,
  0x3b0843023c7822a6U, 0xbd40b67c3c9b0908U, 0xbd459040bcb49f6dU, 0x3c1ac13cbdc12e51U,
  0xbce27a15bdc86ae1U, 0xbce52f793d8b640aU, 0x3d9b27333dc229a6U, 0xbd8cf2263aca46b5U,
  0x3c57c5443a75c9daU, 0x3d17ee8d3a3bffcbU, 0x3d0d22da3cd9d981U, 0x3d3dd0b33cb35784U,
  0x3bb2b4003d78c2d9U, 0x3bc42168bc746bb0U, 0x3afa92b63c983b95U, 0x3d602817bd0d7d0aU,
  0xbd7fc5f9bc7d7589U, 0xbc877d37bbe568c5U, 0x3acfe2b43c8a5eadU, 0xbcc19b1d3d6301d6U,
  0x3cd54bfcbc767397U, 0xbb0ca51fbb8c7737U, 0x3d215ebd3c9d1939U, 0x3c1f843e3d85f836U,
  0xbafeb6153cda4f61U, 0x3c4dca793d1c3f12U, 0x3d4421f93c1f62afU, 0x3d6a8d533ca31622U,
  0x3d05dbaf3d7500e5U, 0x3c52af483c16bba8U, 0x3c31ed6c3d5ad31aU, 0x3cb076f2bb4c7c87U,
  0x3b4ab88fbcd12100U, 0x3cb40ca439708135U, 0xbcc6ee4d3cbd3891U, 0xbd1506583da86bfeU,
  0x3d59885ebbc5e53cU, 0x3d723b233d13783bU, 0x3d0bc0e33cab9581U, 0x3c04fe403d08ee3dU,
  0x3c924d09bc934e42U, 0x3d3152563ce61c05U, 0x3c8067603cd079abU, 0x3c93c03abcf4cebaU,
  0x3c244f9f3d001044U, 0x3ccf18fdbbbfd0dbU, 0xbc931dc33ce4e26fU, 0x3ce7016cbb351145U,
  0xbb85c8273d386360U, 0xbbe8b005bc1c9eeeU, 0x3cd67a85bcca0b3aU, 0xbc9b628b3d093ffcU,
  0x3cfd52a73d060643U, 0x3c7f47883d0579b6U, 0x3d07fd623c5b83bdU, 0x3d077f933da3217eU,
  0xbd5c7c503d0b37bfU, 0x3d2b7fe83daac4caU, 0xbc8e57f13c88f6d1U, 0x3c9efa5dbcf62da0U,
  0xbc480f10bc1859cfU, 0x3d2a052fbb8836eeU, 0x3c6ee4e03d583993U, 0x3bf58c9a3be9d558U,
  0xbcaa5c613d05c51fU, 0x3cd03d893cb7c0e5U, 0xbda7e145bd4b102eU, 0x3b8ad4463c5f4936U,
  0x3ccbfac5bc050b4fU, 0x3d8dd0713d529382U, 0x3d2423703cd5ef3cU, 0x3c1d5767bd4693a6U,
  0xbd8c119d3cf9f65cU, 0xbc73283a3ce0ec22U, 0x3cf935b83cd9a5c3U, 0x3ce4e051bc2b5230U,
  0xbcae5bae3c02fa02U, 0xbbf8e464bd2acc51U, 0xbcd7b6f93d8df805U, 0x3d5c60f53c91f0b9U,
  0xbdbf77f03d266278U, 0xbca2b2743ceb9da7U, 0xbd399d00bb0ec4d6U, 0xbcfebf083cfb4387U,
  0x3d1ea93dbd4bb897U, 0x3d675bca3d7030f9U, 0x3d2a8bb53d38af50U, 0xbba8d03bbd41e5ccU,
  0x3c8a854c3cf4906cU, 0xbc044bea3dc7eb1eU, 0xbc86a29c3b5a0275U, 0xbba002d5bda05b82U,
  0xbcd0be29bb663809U, 0x3dda8d043b2638b5U, 0x3d1c8fda3d76f797U, 0x3cfd5a18bbff0c79U,
  0xbcf23c61bc830d86U, 0x3a19700dbceb1391U, 0xbc6587a6bdab7c7cU, 0xbc8f18b43db13621U,
  0x3d878d1d3c93e918U, 0x3d66eca93ccb8782U, 0x3d1db0383c515f02U, 0x3c894bbbbc4b9ad8U,
  0x3ba88afb3b872fa1U, 0x3cfbcf733cb259d9U, 0x3c91b5ea3c74acdcU, 0x3d12d0e53d14eceeU,
  0xbc6b0c333dab78a2U, 0x3d7850e1bd6e7194U, 0xbb802c483cceb866U, 0x3b99a7233b2aa204U,
  0xbd3c84b13cd72417U, 0xbbfc65bfbbf07c40U, 0x3d1e5c38bd6dc953U, 0xbd007ccf3da51bb1U,
  0x3dd56facbb978f93U, 0x3d168026bc41f491U, 0x3c2402503d0e00c3U, 0xbd11137a3cc08248U,
  0xbcd7e1c63d1e30f5U, 0x3c5c35023c6ff018U, 0xbd13697e3d8f2eb0U, 0x3d3b1ccabd04b8cfU,
  0xbcdfe6b73bfc11edU, 0x3d6ab5293bfc2336U, 0x3d126f403cc58094U, 0x3c83b3c23ccbdbc5U,
  0xbc2ec7c8bc8cbfddU, 0xbceecf843d66b884U, 0xbc595ff73d26fdd8U, 0xbb9957e83d90cd74U,
  0x3dac83143cb01ec7U, 0x3ce5e4b0bb079023U, 0x3d1253563d0f9750U, 0x3d9d5fa9bc09161fU,
  0xba862929bb4424d0U, 0x3c557381bacc8db0U, 0x3d8a20423d40408cU, 0x3c41bbbdbcb498fdU,
  0xbca1e98e3d5882c4U, 0x3d594ec5bc94c620U, 0x3c927c893d4d49a7U, 0xbb0f077e3aa59605U,
  0x3cfcfc3f3d22dad4U, 0xbcf6cd0cbc199133U, 0x3cc50588bc26b391U, 0x3b9192053dcad2a1U,
  0x3da87af5bcd698e9U, 0x3d4a327ebd083a07U, 0x3d242864bccec9c0U, 0x3c75311c3ce57da7U,
  0xbd8127d33e2bfc4dU, 0x3c43c0123d70350dU, 0x3e22ae113dc31db8U, 0x3d9d5e7cbba12a7bU,
  0x3d1c31ef3d669de8U, 0xbd66f0233d96f69eU, 0xbd2d91fd3bf0d33bU, 0xbd5bdb573e1d4aedU,
  0x3d264fd5bc53cf68U, 0x3ce0f36c3d38e8a0U, 0x3d0b3233bd061fd4U, 0x3d912e49bce59bc2U,
  0x3d0397ad3d3a56d5U, 0x3d4f57283b557decU, 0x3d14ee42bd9b6aebU, 0xbd00f5303df66e61U,
  0xbb0ff2793df6ce3aU, 0xbd12c2263d243611U, 0x3e322a923bc50550U, 0x3bb177e8bcd02e9aU,
  0xbd0fddfa3cf89903U, 0xbe2ef7203d490025U, 0xbd6aa141baa90baaU, 0xbbe7989f3dfb90deU,
  0x3db9bc803da5c748U, 0x3d3d3e6e3de57316U, 0xbc663ad23d7f499fU, 0x3db2587ebde1a18fU,
  0x3bdd527ebbb0b27fU, 0xbc2c227e3df5b7a0U, 0xbca332da3c99c336U, 0x3bca1d633d32a362U,
  0xbdf7b2e73c827b3aU, 0x3c82ff673cc4acfcU, 0xbc5028c23d05437eU, 0xbca30e51bd2876aeU,
  0xbcdc79373d0b6484U, 0x3d457cbebd24249cU, 0x3c1ef1b7bd2ebb84U, 0xbcdfc83d3dc6609fU,
  0x3b75e31bbce6d6bbU, 0x38d07ae9bd2285d7U, 0x3d69b4e6bd978782U, 0x3da451cfbd4d0750U,
  0xbd4d33acbcf0f850U, 0x3cd73ce23d8cfcf2U, 0x3dac46c8bd2cc208U, 0x3d31aee73e1595d8U,
  0x3cf1e6c7bb296d73U, 0xbda481cdbe0bce83U, 0xbd0f27f0be285ae0U, 0xbe16a3bfbd209146U,
  0x3d0fffd03df352c4U, 0xbe0f4342be1f69dfU, 0x3e01e3883dd94a24U, 0xbe1fc8133d8db426U,
  0xbd1efa05bc422ea0U, 0xbda9dac4bdad291cU, 0x3db85301be148437U, 0xbe26f6b63d349871U,
  0x3e00a627be13b372U, 0x3d4b03563b7a5767U, 0xbd0eab8e3e2276c9U, 0xbe4dd05bbad2c488U,
  0x3e1afd43bd0617acU, 0x3b87178abda36881U, 0x3dfc74a9bdc1a9e3U, 0xbd9015693ccfc14bU,
  0x3cfa98563cf41e1bU, 0xbdc602c0be19d2d7U, 0x3e8296f03db9943aU, 0xbe1fafdcbd920c0dU,
  0xbda2ee37bda54f3fU, 0xbdd16050bd860943U, 0x3e02a6d4bd85f9ddU, 0xbe3584a2bd81d9e3U,
  0x3de11816bda14bdcU, 0x3cce3e373da403deU, 0xbc84441f3e1bbe11U, 0xbe4fd9c9bc4f7524U,
  0x3e34419a3c1e8183U, 0xbd88374fbc7381ccU, 0x3d73b978be083d24U, 0xbd93c30f3d7a242aU,
  0x3e6088fe3d552c11U, 0xbdb7b696be38dc77U, 0x3ead83ce3d40ab63U, 0xbd2a17ad3c9de495U,
  0xb783a4a5bbb5cd3aU, 0xbda3ec78bcaa76d9U, 0x3e20e9e2bda2cd21U, 0xbe3b4ccbbd789b24U,
  0x3dead112bd9773aaU, 0xbd9f21cf3d8906c9U, 0x3c38cf273e783fb3U, 0xbe5b1a0b3ab83ba4U,
  0x3d624de33d1f6a3aU, 0xbc275e053d890e23U, 0xbe298f2cbdeeececU, 0x3d823146bd24b755U,
  0x3e0002cd3d7bd984U, 0x3d3e7b82bd4006beU, 0x3da219853c0b1b78U, 0x3de48589bdc6b5d1U,
  0x3bff87d0bdf3f05fU, 0x3e19002fbcd349d6U, 0x3db7979cbd42eadaU, 0xbd2fc9ed3d7a6bffU,
  0x3e1b70a0bc161652U, 0xbd139eabbd05294cU, 0xbd5469cd3da586adU, 0xbd8580693ced5b89U,
  0xbd2114583da3c449U, 0x3d389704bcbbbb46U, 0xbdc11000be0cc537U, 0x3cfdb4d8bc7c62d1U,
  0xb99b117d3d140529U, 0xbdbd07e9bdc84640U, 0xbdb4a64a3d8326efU, 0x3dfa9978bd565c3cU,
  0x3c44aa8fbd453d83U, 0x3e16bcac3d74b87eU, 0x3d014cbabc4e8b4aU, 0x3db184bfbbe25468U,
  0x3e34d31dbd05c9d7U, 0xbdaa63903d417723U, 0xbd312d5bbd93c2d4U, 0xbc7702cebd0db501U,
  0x3daf8f9f3b590d65U, 0x3b0887883c001286U, 0xbe5eb13cbde4a87fU, 0x3e06a953ba93cd02U,
  0x3e3042aebcea6cdcU, 0x3e0dbefbbd79cee3U, 0x3dced9b4bcaec2fcU, 0xbb6a227c3c6931afU,
  0xbd874abfbdef92a6U, 0xbd254e42bd3827c8U, 0x3b7f47aabbdca7eeU, 0xbdcc2d46bc9d82cdU,
  0x3d9bc8e03d0efae9U, 0x3d06a8433da06448U, 0x3c0fb9433d9791dcU, 0xbe40b600bda00110U,
  0x3d9c25d3bd139f5aU, 0x3cad30d03bb8fa7eU, 0x3dd4d2953cedbe40U, 0xbc2998a43d842fcdU,
  0xbcd5a70cbc9db106U, 0xbd8137ab3e3d8aceU, 0xbaea629c3d880727U, 0xbcb2e55a3c683307U,
  0xbd124dd13c0273aaU, 0x3c81e0f23d315032U, 0x3ae35a5cbd37ab5dU, 0xbcf5d7523c8943f2U,
  0x3ca96d4c3cdf48ceU, 0xbd1427d5bcc625ebU, 0x3dd4ff5fbd05c7e2U, 0xbd5290173d454348U,
  0x3d2eb8b9bb82dda0U, 0xbd39764bbba90f2eU, 0x3cba6e7b3ccf9d25U, 0x3b410bcf3bb6b78cU,
  0x3d3bd5c9bc3eb662U, 0xbdcbdb7cbd06c324U, 0xbd391d373d819551U, 0x3d6cc2ae3d47261bU,
  0xbd2b9bd13d82e097U, 0x3c02aa3bbc017027U, 0xbc848e1fbcdbc1a8U, 0x3c12c2343d91ea27U,
  0xbaf8d17abce9858eU, 0x3cc4c887bc139f41U, 0x3d5c51073cf0ae0cU, 0x3c628b27bcf61286U,
  0xbc8c55afbb6e7e66U, 0x3d822f4ebd021677U, 0xbc3c51b63c149e06U, 0x3cad127a3d9f8496U,
  0x3c34e0323cccd078U, 0xbdd7b9033c836595U, 0x3d0ee16d3db85378U, 0x3a0c80bd3bb643b7U,
  0xbd32bb003d27db2aU, 0xbd28ec3d3d8b5031U, 0xbbaccc8cbd4c07caU, 0x3d21392b3cfddd4cU,
  0x3d86cf753d5d9624U, 0x3d1637dbbaa7616fU, 0x3dcabe033c0b95c5U, 0x3c92844fbd11f4beU,
  0x3cfa81e9bc3372ebU, 0x3e329d443d8ca0eeU, 0xbd882043be12b10dU, 0x3e3ceded3dcfee50U,
  0x3db2b3813b7972e5U, 0xbdc7876fbd2f93a3U, 0x3e1f4bbdbca11047U, 0x3df7b2f93ccab12aU,
  0xbe3c196bbeaec820U, 0x3dfbdbf33ce0aa60U, 0x3e473917bd7951b1U, 0xbd8f6936be13231fU,
  0xbc24b5d93cc14cb8U, 0xbdaa95b33cf92be1U, 0x3c27f8dfbd02cd60U, 0xbcad52d2bd05a54aU,
  0x3cc997dbbd9df8c6U, 0x3dce5d0e3d26eed2U, 0xbe16d4cebdcb1fe4U, 0x3e0dae3f3dc87b21U,
  0x3d7238a8bdfe4438U, 0xbccc9ec4bd5e32b1U, 0x3df65ad7bc307467U, 0x3cfcd3b83c92cefdU,
  0xbd8486efbe9ae9cbU, 0x3d77b91e3d688f0fU, 0x3df83c90be7bb88aU, 0x3d7f97eabda06ddeU,
  0x3d01d8853dcae8b9U, 0xbe39352f3d42a22bU, 0xbddcdba6bdb69b6eU, 0x3d55ac123c39023dU,
  0x3d038e06bd8f3a8dU, 0x3e385aae3d8cb129U, 0xbdd7f4ffbd9856aeU, 0x3ded542e3e334b99U,
  0x3d8b8bb0bdcb4716U, 0xbe49fca1bdab854bU, 0x3dd4d7b13ca9afbdU, 0x3d7de1a03cf020a4U,
  0xbe0600a3be82b453U, 0x3dae37b73df8be16U, 0x3e85d2b0bdc66f80U, 0x3bcd82e0bdea152eU,
  0xbc7c87c43d7965b2U, 0xbd476ea6bca38abaU, 0xbd5a7d20bc663becU, 0x3d5781733dbdc8f9U,
  0xbc0f8ddbbc464392U, 0xbd82009dbd9ef8e8U, 0xbd9cc4363e0e89c5U, 0xbd32dd0abcaac9e8U,
  0x3dd44a04bc17c34fU, 0x3cf30a8a3ddb061aU, 0x3d98784b3d0168a4U, 0xbced5b44bae91d5fU,
  0x3d7f1ccdbdbdaa9aU, 0x3dabbcf43b16985eU, 0x3b95872f3dd04143U, 0x3d42d069be010a2eU,
  0xbddd2a103db772f6U, 0x3c237c7d3dbfc4e3U, 0x3e06fcca3e3abf88U, 0x3db810d8be289b21U,
  0xbda9f601bde362c7U, 0xbd08a7fa3dd649b7U, 0xbc30841dbd3764ffU, 0x3c16a493bd68a180U,
  0x3d8acfa3bca6d324U, 0x3c31f5493d4d31ceU, 0x3b30901d3d7cba2aU, 0x3c8096d33c1ee529U,
  0x3cfc21eabd14e194U, 0xbc2a015fbdafe3e8U, 0x3b8a3ad5bd84278aU, 0x3d954b1ebe028c0dU,
  0xbd9e84383da798c9U, 0x3d80fdb43e075624U, 0x3cf4029e3c8d0e63U, 0xbc11c2f0bd9f4e57U,
  0x3b8ddb5bbd79c106U, 0xbd231a4abc3ef79eU, 0xbcfbc8333e025988U, 0xbd851194bd3d8996U,
  0xbd9f1501bd7eeaefU, 0xbd41b3bd3d8b780cU, 0xbdc68d043d08bc81U, 0x3d99d15fbd5f49eeU,
  0x3de039253c52805dU, 0x3c1f25d63ca660ceU, 0xbd4c40cd3e03bca9U, 0x3d4d40adbd59acc8U,
  0xbd8cc48a3df685eaU, 0x3c0f902e3d80b866U, 0x3d3d309d3de2dad5U, 0x3dbb12b2bce64693U,
  0x3cc28d493d47739fU, 0x3d758d04bd01b7dbU, 0x3d9fdd3e3da8930dU, 0x3d6998693d925864U,
  0x3d555d9c3d580b92U, 0xbd2ca8a93db09e71U, 0x3d08d4eb3d624a31U, 0x3cc993b43df280e3U,
  0xbd5fee62bc116185U, 0xba98f7163c33c8dfU, 0xbd36762bbdd1cbb9U, 0x3c5fe0733d270b3bU,
  0x3c99a42f3d39d8e3U, 0x3d883efc3bdc73d9U, 0x3df399b73bd60d6bU, 0xbd942c59bd1ca499U,
  0xbb57ed933c7a710cU, 0x3d2b4d263d1e376bU, 0x3c9e10ee3d117c73U, 0x3d64d842bc886ab6U,
  0xbc7fe9853cb14c2aU, 0x3dc7a798bd19d08bU, 0x3d05c4143d369334U, 0x3c76f529bccbf2ceU,
  0xbd010adf3d9d840aU, 0xbd499257bd42319eU, 0xbd0602d3bd3603c7U, 0x3dfa5ed33d35db34U,
  0xbd78da103be48829U, 0xbcea2df73cbdae3cU, 0x3d88cea6bcd090e9U, 0x3d8bb817bdc3e63aU,
  0xbc76e2313d2373deU, 0xbd8dc07e3d2811a7U, 0x3cb3c92d3c38c8adU, 0x3c682dbbbc98e12bU,
  0x3c3ed12abd0d4f63U, 0xbd836732bc816fd8U, 0xbda17baebd3463d1U, 0xbd96a2693d022a3dU,
  0x3cde91953dc3660dU, 0xbd8e0a7dbc370b1eU, 0x3b227ff1b891a31bU, 0xbbeeeb57bd2d7690U,
  0xbd06a6d8bd797128U, 0xbc8357c43c963410U, 0x3d0eb4c83c90a5bfU, 0xbd6109ee3da4fd80U,
  0x3dd4d8bf3d8781c0U, 0x3d85180d3dce8c0bU, 0xbdde5c88bdaf9a78U, 0x3dd2e6d43df208ddU,
  0x3e36fd1d3d1b80f5U, 0xbe3976223c85fc5bU, 0x3df09326bca2c259U, 0x3b9dfd6ebcb0a645U,
  0xbe343091be541d1fU, 0x3c0d5c3f3c26585cU, 0x3e65f6a43d3c88f2U, 0xbd45db68bdacbba5U,
  0xbd40d10bbd22c278U, 0xbdc3583a3c7a5009U, 0x3d35dbe23dae67beU, 0xbd5a75d93e038a91U,
  0x3e09db323c8a3db9U, 0x3d3beae93b994cb1U, 0xbe000afd3bd6ed70U, 0x3d2d1d473d37a8c0U,
  0x3df0884dbdb97837U, 0xbdeeebf5bd9e6413U, 0x3defd10ebda3ab3fU, 0x3d3f7216bc9630b9U,
  0xb96a27a5be2ba2c1U, 0x3c9f694ebc9eb448U, 0x3ddfd80abdb09e33U, 0x3d1d9038be3eaa19U,
  0xbc69fc493d986c8fU, 0xbdafed5cbd88b42fU, 0x3cb83c4fbd83b324U, 0x3c662a36bd3afcb8U,
  0x3d8e99f0bd5ee592U, 0x3d40aaec3c8dabf6U, 0xbddb156abbdaa747U, 0xbc8ba2f33cb07ee0U,
  0x3dc18a53be103eb5U, 0xbe38a2d0bdb8e3beU, 0x3e04b33e3c7b6e0dU, 0x3d4fa271bd5862ccU,
  0xbd8e2796be5b7966U, 0x3d085d2d3d52cfb9U, 0x3e26d959bd93e86cU, 0xbd8adc71be03a608U,
  0xbb4f84793d145e09U, 0xbcf9f602bc18754eU, 0xbe011b4dbd98337cU, 0x3d2dbd4f3c9fac54U,
  0x3d35f8ee3db5c5c4U, 0xbd870b8f3b443e04U, 0xbe0c1d743c3ae8ecU, 0x3ca72f52bd25d26dU,
  0x3e6020613cb93933U, 0xbd37dfacbd0223b6U, 0x3dbb6ead3b480965U, 0xbc8000bebd26f45aU,
  0xbd283519bd932c1bU, 0x3cdfa811bd8fd024U, 0x3be9a7843d8f31f5U, 0x3d38db98be098e74U,
  0xbda440663e0fdc9bU, 0x3d4f83053e2f8da7U, 0x3e067c0d3e99fd5eU, 0x3d8d2ba7bd82bc37U,
  0xbcc1096dbd31aa86U, 0xbd84e5f7bce35376U, 0xbccb085f3add3267U, 0xbdbed226bdb3f631U,
  0x3da4d9a4bd74e4e4U, 0x3a94a81f3d2ee100U, 0xbdc3e62ebc4df849U, 0x3c7ef1e13d321e99U,
  0x3dc70f9e3c18cfc6U, 0x3e180081bcac809aU, 0x3da05642bc63b021U, 0x3d32155abd875ee6U,
  0xbdacbddc3e0af8c2U, 0xbcf8fa113cae83c5U, 0x3c8ed849bd5dc978U, 0x3d8b44fdbe1278d0U,
  0xbd94ee58bbe1e4a8U, 0xbd44ee193c10795fU, 0xbdaddde43cc37edcU, 0xbdd82b04bddd2bfcU,
  0xbc7cffb03c495dadU, 0x3aaf005f3dc10aeaU, 0xbde6d1f83c8fa539U, 0x3d87abcc3bf23fe0U,
  0xbcea3b3abd72dfa8U, 0xbc494868bd1e886fU, 0xbba6430bbcaf9956U, 0xbc8f90fa3cb22f54U,
  0xbc2b70233e16e4c1U, 0x3d56fdb53d4e83b7U, 0x3cea9ea4bc9962a4U, 0x3d13a6e8bdfe506dU,
  0xbd0909e73cd26e3cU, 0x3952a750bc94abf8U, 0x3d6311623dc9f2d2U, 0x3d7d1afabc07e26eU,
  0xbcf030dbbccf4447U, 0x3d325267bbbf566cU, 0xbc8e750abd6a17e0U, 0xbd3c52dc3b979edeU,
  0xbcc0c626bceec009U, 0xbd4f67013b902a7bU, 0x3d23c552bd60846cU, 0xbd02563ebd0032e6U,
  0x3d293332bcc82f30U, 0x3c354baebbea7d19U, 0x3daa35d6bca47fddU, 0xbd5a44ed3da2aec5U,
  0xbdb749323d897eb4U, 0x3cc0a2dc3d9b42c2U, 0x3d554a62bcb43765U, 0xbd3a989bbda2e15eU,
  0x3cef3c5d3cd26f38U, 0xbd3929a5bdc19b1bU, 0x3ccf50323cfaf751U, 0xbcf451b93da1dbbeU,
  0x3c7518acbd764f77U, 0x3c4ccb0b3d0df7b4U, 0xbcb1200cbcd052b0U, 0x3d93e1493cecd319U,
  0x3d37ae95bcb63c10U, 0x3cec01e4bb84efc0U, 0x3d39d0533c10f723U, 0x3d65798cbc2a8e19U,
  0xbdace7673db7b13dU, 0x3ce2a8873d58ab45U, 0xbca0c3b43cd2a73aU, 0xbd03cd54bd29640dU,
  0x3b7ab342bc7676c0U, 0xbc7a6b6abd82fb33U, 0xbbe099853c3dd7a0U, 0x3c458be23bcd7d94U,
  0x3cfe24c43c255e8bU, 0xbd6ce6543bfe4d91U, 0xbb85cba6bceac7fdU, 0x3d59e3f13d1f9a02U,
  0x3cac05f7bd2795baU, 0x3d123cd63da5603aU, 0x3d894a663d368e54U, 0x3ce6879a3cc43358U,
  0x3dafe68b3b599dc9U, 0xbcc1d0ccbb9cbe9dU, 0x3ce21fb4bd737a4aU, 0xbdadcff0bd1ede4aU,
  0x3d47385bbc35d205U, 0xbded39e5bdc6aee4U, 0x3e2f4c083d5308e6U, 0xbd9e7e103d181260U,
  0xbe2ceeb3bd9527ccU, 0xbd8db4ae3d368deaU, 0x3dfff7ddbda702b3U, 0xbe3e102cbd243569U,
  0x3db32b92be0c85c9U, 0xbd75d21f3bd2ee1aU, 0xbd9d5dc33dba4002U, 0xbe73a0b03d5317c9U,
  0x3e7aa32bbc9b902dU, 0x3c8cd088bd6c64f9U, 0xbd085555bd618f24U, 0xbd088a99bd17de94U,
  0x3de0785a3af8521aU, 0x3c8c8e05bd96c607U, 0x3e90ebc4bc83a604U, 0xbc0498023ceb5d90U,
  0xbd561074bccb42e2U, 0xbd103e3abd828f6aU, 0x3e2665a8bdafa486U, 0xbe35a706be55b909U,
  0x3e0f3957bdffb06dU, 0xbd0e240a3cf5f40cU, 0xbd5486693e170850U, 0xbdfac7d7be037ef9U,
  0x3e629d033d1d6f44U, 0xbc93f37a3c8c4a16U, 0xbd11a815bd9d6df7U, 0x3bcbbacd3cc8ee38U,
  0x3e54e15a3da088cbU, 0xbd9da568bd56b9c6U, 0x3e5edbf4bc9a45c9U, 0xbd676c563dfdf591U,
  0x3b517c33bd3b0799U, 0xbdb239c03c9854b8U, 0x3e37ef023cb639adU, 0xbdd7a4c8be0e381dU,
  0x3d9afb8abe26d2aaU, 0xbd8b763f3cdead6eU, 0xbd2904633e336258U, 0xbe094ef8bcbc582bU,
  0x3c9169143cb6f749U, 0x3be6c26dbcca5499U, 0xbe0e63ecbddfd121U, 0x3d4445283d7ff562U,
  0x3e0fc0ec3d8dddefU, 0x3d2ed2f6bdd797c4U, 0x3d6fb81b3cbb0f96U, 0x3c1b0c34be3322caU,
  0x3cf0df28be10d661U, 0x3da3f62dbd6bf356U, 0xbb1dbb4abc6a859eU, 0xbe1b3023bde9c457U,
  0xbccbc3313d2d79d7U, 0xbd794005bd3264b7U, 0x3befc5df3dd0a314U, 0xbd1a38f9bdac7d97U,
  0xbb0cb6debda40812U, 0xbd7b40fd3d0a64b6U, 0xbdd74e4ebdb3a3ddU, 0x3caa56523cf70ca0U,
  0x3d51196c3d52b821U, 0x3d2d35c5bcbe25cbU, 0x3c7a7fbbbc862c9dU, 0x3d748344bcb6fe7cU,
  0xbc60d6edbd7274ebU, 0x3d5b96ae3d46fb3aU, 0x3d898827bdd91f3bU, 0x3cb58656bc8373f3U,
  0x3d3c02b63cb34367U, 0xbcce40943bcb3c3eU, 0xbd1dc262bd0f0575U, 0xbd993e47bd0ca35cU,
  0x3d5c39e73e1196fbU, 0xbc3c43c0bc9818fbU, 0xbe448fe1bd68d384U, 0x3b6ae08d3d3a8a41U,
  0x3e23942d3dbc04caU, 0x3dbac744be07424fU, 0x3db6d1febd559a80U, 0x3d8761e83c3a4a80U,
  0xbe059a59bdf57a53U, 0x3d48c3d6bdcb2fbdU, 0x3d7887acbd674ed4U, 0x3d50e12ebdcab9f5U,
  0xbbfcd6dd3dde31b1U, 0xbcc05d273e219303U, 0xbcc301723e02ecc0U, 0xbd6769c1bc842839U,
  0xbc9391183e1caa18U, 0xbd51bd31bdbdf832U, 0xbbbf29c7bd00c571U, 0x3ce4d855bc856b2cU,
  0xbd82e6c6bd723626U, 0xbe1bf63f3d838f0aU, 0x3ca3893cbd9bb872U, 0x3bc238163b998ddcU,
  0x3d8c2636bd81ea48U, 0x3d1dc8cb3e10855dU, 0xbd605daa3e5050adU, 0x3bc458a7bddb16aaU,
  0x3d27acd23d925c86U, 0x3ce1205f3d5a46b8U, 0x3d8645b7bd22830bU, 0xbc51686bbd0a1ed7U,
  0xba363c4fbc87e2f0U, 0x3ca7dbd5bc660e09U, 0xbd8ea6963cd61017U, 0x3dbc5177bca35ea0U,
  0xbd6eded6bd3292e1U, 0xbb2cd6813dade087U, 0x3d73c99cbd5224e3U, 0x3bcae4013ca6855dU,
  0x3df3afbebe120369U, 0xbc30d6603d80b7b4U, 0x3d056ab4bd2ef58dU, 0x3d99eb65be8967faU,
  0x3cd88d623d8d7c59U, 0xbcec54e0bd162579U, 0x3b90ee1b3d215467U, 0xbcb08dfbbd12b9bdU,
  0x3a8ea0493db84123U, 0xbd625114bc75ac35U, 0xbd94dfccbcb2a732U, 0xbc037bf4bdbc059aU,
  0x3d48f4e33c582a54U, 0xbddcbb3c3df6b698U, 0xbd7097d4bcd422e0U, 0x3d6e22533c840103U,
  0x3e3bee10bdbda4c6U, 0xbbd59c6e3d015f2fU, 0xbc74d4213e572cd4U, 0x3dc6dad8bde62279U,
  0xbd5f9408bb445209U, 0x3caee9a4bd126b5fU, 0xbb69e6d83e06f682U, 0xbd4ee1adbc8ee28aU,
  0x3da41a41bdb81cacU, 0xbd1bf82f3d0b016dU, 0xbdc5329fbd0bbb73U, 0x3cb74b1fbca21faaU,
  0x3d0533b3bd9634feU, 0xbd9b2dfdbe278517U, 0xbd5a600c3d4b153eU, 0xbd63e089bd555ae4U,
  0x3e0cd5653cc42bdcU, 0x3d4bc0a73e5d7d1eU, 0x3e06ee84bdc30a1dU, 0xbba7a920be0463b4U,
  0xbd88df793a842ce3U, 0x3d2749463d63176bU, 0xbcde7ad53cc6f462U, 0xbd4e8cfb3ef1aed1U,
  0x3dfa8056bde87abbU, 0x3d8f28debddcd10bU, 0xbe21dae13d185c04U, 0xbc998ce2bb0857d0U,
  0xbcb65640bcf29b31U, 0xbe9a2b453c8d6025U, 0xbcfd93173b90f14aU, 0xbd251daf3cb3bb82U,
  0x3e3f3a703cd657b4U, 0x3db095b5bdabb5a8U, 0x3ced0c073d70e69fU, 0x3dc2eb153de4632dU,
  0x3d1cb1f63d988378U, 0xbdc04a0c3d9447e8U, 0xbbe848b83bf02e97U, 0x3ba7998b3e6a9889U,
  0x3dc091dcbe4dff55U, 0x3d8b5249bd30ad23U, 0xbd5b91f93c8b1447U, 0x3c291f843d3fa99bU,
  0xbd0f1880bd8c9d64U, 0x3d7226233baff410U, 0x3c2789b2bd1d054dU, 0xbb029c8b3ca68f28U,
  0x3d51aa21bc3f9074U, 0xbd51fe27bc0b923cU, 0x3d16bad53d22307bU, 0x3d903dbf3da24174U,
  0x3d3fe1c0bdad0713U, 0x3d06a4bf3c60d315U, 0x3d0279b63cecf7c6U, 0xbd23123b3eaf4396U,
  0x3e00e3573d387e23U, 0x3cf154a53de44aeeU, 0x3deba6dbbd68e99dU, 0x3dc99bd33d87e357U,
  0xbdbe61c7bda9cba3U, 0x3ca6fc48bdd64b7dU, 0x3d80c5143c5190fcU, 0x3d9151533d422d2cU,
  0x3c8e4efa3dc9c833U, 0x3ddd1e7e3db80cf4U, 0xbe62df50bdb1d714U, 0xbc6ab43abd6abe12U,
  0x3ce020d2be747b3bU, 0xbdc8259dbd514aa1U, 0xbd1e17a4bda687c1U, 0xbe32059abcdfc5cfU,
  0xbe0d9a2fbcb6add3U, 0xbcdb9edabde93c1eU, 0xbcac6c07bd87ae49U, 0xbdadb0ce3ce7f44eU,
  0xbc596c52bd99aaa9U, 0xbdeb32793d07dc25U, 0xbe1bedccbcb346fbU, 0xbdc859ad3d0fdf10U,
  0xbd0a0adbbc074977U, 0xbe5cb3ccbc1628abU, 0xbdd74e943d8d78ebU, 0xbd6c9facbd81f9c5U,
  0x3e19c6b0beb20d5eU, 0xbe169e53be0abb3bU, 0x3c1677d8be160f26U, 0xbe0014ee3d20e186U,
  0xbd8658f9bc552ed8U, 0xbd103628bd8b34bcU, 0x3e92ec98bcf43531U, 0xbd283f163e076aabU,
  0xbda3fa9fbd25a058U, 0x3c1f7fdabcafc258U, 0xbe1093ef3d38373bU, 0x3cc41576bd75c497U,
  0x3d6c92e2bd951dd0U, 0xbd1d1a9b3d9c2883U, 0xbdd0e1f9be1cf1b5U, 0xbda92abc3db49053U,
  0x3d6477babec21582U, 0xbd93c0a7bd7bb160U, 0x3d02de1fbe22ca1aU, 0x3de3af43be4b1470U,
  0x3ba4edd23d4ec0a2U, 0xbbc2e5123d506142U, 0x3c9d2e03bcc0e215U, 0x3da23f59bd1d6b34U,
  0xbc3dfc40bd601a70U, 0xbba04d60bc4f8ab0U, 0x3bca9be7bd211e6fU, 0x3c6846093dc190feU,
  0x3d4787993db4b70aU, 0xbce9b88e3d9a34c2U, 0xbc892181bd627e35U, 0x3da17d9dbb9b5254U,
  0x3d38475aba00303bU, 0xbd3de9413d2a5224U, 0x3de5f1fb3d53f645U, 0x3b03c9743da9e9bdU,
  0x3c99864abd527c0fU, 0x3c8d4c603d5b54c3U, 0xbcf20450bcf06a7bU, 0xbd889a69bcc7a360U,
  0xbd3212b13d0ed524U, 0xbbf0b251bb2c46cfU, 0xbd154dbc3d6e6052U, 0xbd666bae3c3d3952U,
  0xbd6753c93d18f83cU, 0x3cb7655f3c6e67beU, 0xbcf1190ebcc95140U, 0x3c652060bc0312c3U,
  0x3d201ccebcd10e5bU, 0x3c313b3d3d942d1eU, 0xbbce772a3c0f1028U, 0x3c87a24ebbae00d4U,
  0xbd1d14cf3d4e43b3U, 0xbd1960463c493764U, 0x3c2a237c3d9439afU, 0x3d7d2d0c3c07bf63U,
  0x3cff70233cbc3d08U, 0x3d2ccfde3d160c17U, 0x3d111ba7bd3fd777U, 0xbcf5aad73d1ec88aU,
  0xbc8506163d2e4e6cU, 0xbd5066bcbd22ccfdU, 0x3c41e301bcd003c2U, 0x3c41ff5ebd14b23dU,
  0x3d55bebebd08a0c0U, 0xbc5d7a1a3dc7ec4dU, 0x3d5644193dadf425U, 0x3c10875f3da402f7U,
  0x3cd8c546bd663c05U, 0x3d182e663d5455c2U, 0x3cf1fafebd52fa68U, 0xbd52d5b9bc96b330U,
  0x3d1000d2bd184ec2U, 0xbe0c1c61bde0a657U, 0x3e3488aa3c4eccb1U, 0xbc667a893ce5fa49U,
  0xbe22bca7bda9c684U, 0x3caf9927bd438cf4U, 0x3e435c07bd4be8e0U, 0xbe2a8245be056dfbU,
  0x3d965978bd3edf5aU, 0xbd9adb653c54b1c8U, 0xbd0a5e23bcd9ecc9U, 0xbde3aa9dbaf7f0a3U,
  0x3e11007dbd4b3b27U, 0x3d59d0b53a989ee6U, 0x3c6ec161bcabf04cU, 0xbd6fd550bcd138b6U,
  0x3d00124abdaf614fU, 0xbbcd1fdabda10484U, 0x3e84c8bf3d0ea613U, 0xbda1f7ef3bbe1c68U,
  0xbd7837f5be0b5842U, 0x3d523f3abdb4b3bfU, 0x3e7219c4be37c53cU, 0xbcc98af3be8f5fcfU,
  0x3e068cccbd029a92U, 0xbca1d255bc4690b7U, 0xbc63eb273d7adc70U, 0xbddb215c3d0144deU,
  0x3e38b4ac3d9cf8d2U, 0x3d5aadfe3ce050edU, 0xbd5d0eedbda3eea7U, 0xbda3467b3d6fc0b8U,
  0x3e4896f13d62ac9eU, 0xbdf7ed86bdab45f9U, 0x3e982fc53d8af07cU, 0xbd8ebeea3dadffc1U,
  0xbe0d1f18bde92ae9U, 0xbc6fa2c03d3b2c8dU, 0x3e805959bc71a5a5U, 0xbdf4c33fbe4639ccU,
  0x3d2187debba6acb5U, 0xbd320d403d93ea75U, 0xbb7d41663e0cb5bfU, 0xbd12a1f33e113024U,
  0x3ab0e63e3d8deac4U, 0x39ee3a0bbd973172U, 0xbe40f32abcfecf4fU, 0x3d3fec6abd0c7978U,
  0x3d80c5073c0924c0U, 0x3c7c0cfebd83b67fU, 0x3e0f986d3be65123U, 0x3d231559bdedd8dfU,
  0xb9b181ddbdc9a2a8U, 0x3c5ead40bd182aa0U, 0x3c9656083c4bafcdU, 0x3ca177b5bdc00c54U,
  0xbcf7c2ec3ce5d61fU, 0x3a6482ae3c1b1b57U, 0xbc983c713e0ff41eU, 0xbcd043fabd9b19a4U,
  0x3c2d11adbda4027aU, 0x3b83a3db3d7c41faU, 0xbdba1ff6bdfba193U, 0xbc89904abd40c772U,
  0xbcb83c21bd8fe53eU, 0x3cf09051bd952c91U, 0x3d03a3e63d0f8c77U, 0x3cdbbc44bd18d564U,
  0xbd947d4bbd2e712fU, 0x3d5aaf10bbb35253U, 0x3d28f858bdbbdd47U, 0x3d96706cbdff8794U,
  0xbc1d90d93cb8b434U, 0xbd7e21383dbb193cU, 0xbcb07edebda24203U, 0xbe2deca0bde53150U,
  0x3c9fc2773d842640U, 0x3b45a327397047c9U, 0xbe2efe4e3c9e2f54U, 0xbc2f869dbd6869caU,
  0x3e1937c43e2867d8U, 0x3d3660e2bdaee366U, 0x3d825d2bbd6b0fe5U, 0x3c867430bcc5a532U,
  0xbc69a57abdd2a460U, 0x3d899cd8bd572b74U, 0x3d80b0af3d6e96f3U, 0x3db0db64be01bfb9U,
  0xbaee61d33e0c7ca3U, 0xbc3ea9683e198673U, 0x3d58fba93e68572bU, 0x3d010705bdc51aadU,
  0xbb0aebb43d629d84U, 0x3d066604bc9fabe5U, 0x3d42939abd242441U, 0x3d007c443d8919f7U,
  0xbdaa5ded3ccafca5U, 0x3d19e6543c788a48U, 0x3d203f01bcbaef2bU, 0x3d4388e8bd37c069U,
  0xbbbd6ee93de6a08bU, 0xbd5b15d23dad050cU, 0x3ad23ad2bd310490U, 0xbdbd64cb3d178098U,
  0xbcde5211bdd3b96fU, 0xbdb1c7e2bc0f9f92U, 0xbcc68a69bd94425cU, 0xbd8636703dae10fcU,
  0xbbf4e5793dcba732U, 0xbc6b6f27bdf58210U, 0xbc313b21bd6929abU, 0x3d7351fc3c95e552U,
  0xbc51f144bd36ba21U, 0xbdba6290bdabeb97U, 0xbd86d1edbcf37a6fU, 0xbd53cdcebc31d82fU,
  0x3e11f9553d6a8a25U, 0xbc8397e13d2f7538U, 0xbd9cbb923ca5d3f3U, 0xbdb988debccffaacU,
  0x3cc73e1bbe1677e3U, 0xbe01b1f4bd727747U, 0xbd3ddec1bcd099e6U, 0xbbd316f63cb6ad2bU,
  0x3df400e8bcbfdd8dU, 0xbc8e4029bd9396c0U, 0x3cf54fbdbc0778efU, 0xbd105c253d62d896U,
  0x3c88926c3daf1c34U, 0x3dc162c8bc7461f9U, 0x3d93411ebc904414U, 0xbce6cdcf3c49130aU,
  0x3d5f25473e4ccdacU, 0xbd8ff9673e14ae06U, 0x3cfec3cdbbf5284fU, 0xbd3eb9223da90cd9U,
  0x3b402812bc130636U, 0xbe23d9c5bdd4f396U, 0xbcd172773c846ac1U, 0xbd95c5983e68bc32U,
  0xbbc5fec83d7ce5d2U, 0xbd535f7a3e5bac80U, 0x3ce65389bcefe9a1U, 0xbc72e7d23d85b7faU,
  0x3b5029e63b230ccdU, 0x3db5492ebe27a899U, 0x3d4403b93da9da88U, 0xbcf904193e015ef3U,
  0xbe4a91093dae742eU, 0x3d4e64bfbd122170U, 0x3c83e40fbe37826eU, 0xbcd3fdb73e0e3932U,
  0x3b0f9763bdf4e835U, 0x3e059e48bcfb7503U, 0x3ddb01923d1fd379U, 0x3cb8b436bdcbab1eU,
  0x3ce3710f3dd37a16U, 0x3d7c062d3dc378feU, 0xbd22bb443c968860U, 0xbc2dc4f5bbc22586U,
  0xbca56a1dbbcb1dfbU, 0x3e1a422cbe4ca37dU, 0xbd3b9bde3bd31cfdU, 0x3d8d8ca33c30f88bU,
  0xbe5121123daad891U, 0xbd4e149b3dd2110dU, 0x3cf464753c05885fU, 0xbd26fff43e3b9d84U,
  0xbc815ac3bda99921U, 0x3e2541e93d6b2073U, 0x3dce3ffd3d3053e4U, 0xbd0ed453bb73b710U,
  0x3e180aa93dc9b923U, 0xbc0990153e80506aU, 0xbd126d0a3ce87865U, 0x3da4784c3dc89c93U,
  0xbde42620bcefaa93U, 0x3dc82399bd2eddcaU, 0x3deb32a13bd42f5bU, 0x3d5def1dbd2efb91U,
  0xbe71d4d6bd3ba9b6U, 0xbc129a6fbd1347ccU, 0x3dfaa871bd49071eU, 0xbe2044423e4eb878U,
  0x3d7d1770bc02d545U, 0x3d302857bd2f5e4dU, 0xbdaf2b533da7935aU, 0x3cde89cebdda5335U,
  0x3d1ab2803de69bafU, 0xbd1afe9c3ded1034U, 0x386cc024bd8b7cd1U, 0x3b7b7a8b3c5dbf28U,
  0xbde591173e84216eU, 0x3d30374abdb8be46U, 0x3e310b8c3d8335b5U, 0x3cf690fb3d4bf7c5U,
  0xbcb03a893a891a80U, 0xbdb935443d251524U, 0x3d935144bbc2c23aU, 0x3d7da345bdf9b586U,
  0x3e1727b23daa282bU, 0xbc1861f9bd9e285dU, 0xbb97473f3dc2ac45U, 0xbd35a2bf3cd37a03U,
  0x3d1b5c123e1323fbU, 0x3cb496ca3deecf2dU, 0xbdc640c9bd8d2102U, 0x3d60551ebca5f238U,
  0xbbc928353e1b4717U, 0x3d202984bd925a18U, 0x3e6e17483d7c1b08U, 0x3c3ce2023e57ffa9U,
  0xbcc533f63d47f447U, 0xbd14d7a6bd3ebb02U, 0xbcd752a63daabfe5U, 0xbd53c6ec3e0385f6U,
  0x3e307f713dc5c754U, 0x3c900cf2bd5b2480U, 0x3c1d1a4e3e2c75c5U, 0x3de23a043e4ab016U,
  0x3d04b8313d1b0f03U, 0x3d2e13ba3e4d09eaU, 0x3e0de838bd5c99e3U, 0xbd07ede83d912573U,
  0xbe3250603e9a33a3U, 0xbc3d84afbdd0bfc9U, 0x3e6d33ac3d6e0e05U, 0xbddbe3fa3dbf8b3eU,
  0xbc566ed43ded464eU, 0xbd5e49983da29724U, 0x3e1e17d33d5338f4U, 0x3d95c6413c991eaaU,
  0x3e191e4a3c5cfbbaU, 0xbcf0ec6dbe2b61c9U, 0xbd18b7973e17cf62U, 0x3d03bba03e0647fbU,
  0xbe00625e3d150fd5U, 0x3d0811c43d59cd1aU, 0x3d29ac3f3d025804U, 0x3d251ab1bd89d4f5U,
  0x3d71092bbd2f2805U, 0xbd91160cbd1005eaU, 0xbd1503af3ccc7f2fU, 0xbc9b9de83e19ec1cU,
  0x3d8da949bb948911U, 0xbd6cdf753cfe1779U, 0x3d06691cbcbe22b5U, 0x3d87b0fabc8ffef4U,
  0x3d7e31cdbd40d70bU, 0xbd3726a43cfa4b1bU, 0x3cc48606bcda2c5fU, 0x3d438cd43dfe6c03U,
  0xbdb1720a3d01edf6U, 0xbcc49cb6bccdda78U, 0x3d1f6e4f3cc400d8U, 0xbd3e8aa1bd1197cfU,
  0xbbf0c2a6bcf77b60U, 0x3c6a38f5bd9c9834U, 0x3ccef7c63c7a1465U, 0xbd8fce223df2807cU,
  0xbd4b3f6d3d88a7f9U, 0x3bdd36fcbd0eaaf1U, 0xbce17f103ae7c6acU, 0x3c55cc4cbd1298adU,
  0x3c3a5b5cbd2f48ebU, 0xbcebefe73dd555b7U, 0x3d81381e3ce47d0eU, 0xbd1226aebc8c54e7U,
  0xbd45af7f3d562d36U, 0x3ba016103d50bb1cU, 0x3ccb915b3e133e15U, 0x3d8a03fdbd79909eU,
  0x3c86e0ca3d04e910U, 0x3da9aeb83d09e196U, 0x3da12e50bd5d5d58U, 0x3d1c83563da32a40U,
  0xbd1acd303d8486b0U, 0xbba4d67b3cb7a9fbU, 0xbd86661a3d182e36U, 0x3dbdebb7bc685d90U,
  0x3c06b610bd4cc1aaU, 0x3c249d6d3dbbc701U, 0x3dd0f96bbce8a15dU, 0x3dbcad2d3d2ae6cbU,
  0xbcbdfc283be6403cU, 0xbd99c47ebbbdc6e5U, 0x3d2010eebe2a70ddU, 0xbd75f178bd13820dU,
  0x3e0a8d8bbd2c391cU, 0xbe646fa5bdd1b838U, 0x3e43e5943dc991f9U, 0xbd2fdaa3bb77d284U,
  0xbdfeeb72be067537U, 0xbd878b6dbd7851e5U, 0x3e0a27d6be1307f8U, 0xbe696777bdc4fea1U,
  0x3e49c223be0a3b73U, 0xbe27a011bd575211U, 0xbd588cfb3bce3eeeU, 0xbdf5b0e03d2ea0e9U,
  0x3e135115bcb46becU, 0x3ce35be4bce8995dU, 0xbd2977bfbdc8a3acU, 0xbd60b956bceeafc1U,
  0x3df11945bbff4423U, 0xbd39f06fbe0b308eU, 0x3e821c3c3bdc4e08U, 0xbdcbd1cdbd5acfd8U,
  0xbe184c0ebd2e3f8aU, 0xbd253fcdbccf64b4U, 0x3dbc197ebe7058f5U, 0xbdcf7760be57c486U,
  0x3e2cd28fbdff89b8U, 0x3d275058bd3e4f56U, 0xbc9e061dbbdcd9dbU, 0xbdec87e7bc9c2947U,
  0x3e2a9f993de389eaU, 0xbcff98c4bd6b4957U, 0x3d1714efbe7740d0U, 0xbbfb508b3dd9087dU,
  0x3e21b4713c6e92ecU, 0xbe0b64f9bdd5e661U, 0x3e4af3c93cfa3b29U, 0x3b4ad4f23db77127U,
  0xbd6feaf6bd695014U, 0xbdd21345bccc69daU, 0x3e41488fbd5bbd5cU, 0xbe129d5abdfd9110U,
  0x3da5411bbdcdded3U, 0xbd185d0b3df06f0fU, 0xbda0f6f93dc721a0U, 0xbe30955e3c8bc6e7U,
  0x3ca8c9d53dacc9ccU, 0xbdc9ba14bd00f966U, 0xbdaad71abdf768c5U, 0x3d6200133c934888U,
  0x3dcd8be33d953489U, 0x3cf7b3893b8c9f7aU, 0x3da4034fbd9e1355U, 0xbce91d0abe4dc191U,
  0xbcaeb93fbdb59808U, 0x3da8e02dbbc9e400U, 0x3d85ad2e3c9e6c6aU, 0xbdd18650be015294U,
  0xbd4c2e533d0883b3U, 0xbda8a70ebd401686U, 0x3d1ef07b3dd2702eU, 0x3d407a6abd94cf0bU,
  0x3d873e59bd3bffe0U, 0xbd14ea6e3d8fb399U, 0xbdb97759bdeb60eaU, 0x3d555cedbd3c5e82U,
  0x3c69a12f3d4e7423U, 0x3c4432f7bdd1c10dU, 0x3c9aa82dbc79c62eU, 0xbd0282cf3d4375bcU,
  0xbd1108cdbc7305f5U, 0x3dfa808e3bb11f1cU, 0x3d63c2e3bde8caf1U, 0x3d1555cdbe4d38f7U,
  0x3d5127863d5ed3c7U, 0xbcfb2e253dbcf2aeU, 0x3d6b4bebbe281082U, 0xbe1e8968be1bcde8U,
  0x3cab11a83e085877U, 0xbd53c11f3d2251f6U, 0xbe5caaf6bd9b08efU, 0x3bac51ffbd04854bU,
  0x3e2a26dc3e8a923bU, 0xbcd1db99bd968992U, 0x3df4bfb5bc92a250U, 0x3d8c13ce3c4e5795U,
  0xbe2296c5be17ff92U, 0x3e0d38fcbd063056U, 0x3d61c0fcbc93fdc8U, 0xbc17428cbe2345d3U,
  0x3d2b76ca3de510dbU, 0x3da1ff673e1072b0U, 0x3dbc15d23e8bb13cU, 0xbda46ff3bc1ebc52U,
  0xbd9c903abd987312U, 0x3da0ef63be009342U, 0xbbf9b9b0bc3dc987U, 0x3c9fbea13d23736eU,
  0xbcd461783b921e90U, 0x3d286b383dd1df1bU, 0x3d1f942f3ceaa254U, 0xbd48306d3c2641c8U,
  0xbe0e8e673d4fc2fbU, 0xbbcc5ecdb9a3e5c3U, 0x3cf6eddcbd1e470aU, 0xbb3955f13d8c9ec2U,
  0x3becd5b7bd249266U, 0x3c740ca2bd0b8621U, 0xbc909308bd81a666U, 0xbd0360e8be436f03U,
  0x3c47b090bdb41a7dU, 0xbd56e670be381b63U, 0xbd4553873ca1fa55U, 0xbd414445bd733c3dU,
  0x3cc8d6aabc3aaf61U, 0xbdddba6dbc904d16U, 0x3cb2a3103c0eb89cU, 0xbd458a0cbd19284bU,
  0xbd676308bcae606aU, 0xbd0a28543cab71c4U, 0x3cee80d8bd6dab51U, 0xbd0533a83d699514U,
  0xbca12f6ebd928ea9U, 0xbcbe1ec0bd39f3ecU, 0x3d6ce5093d15fdacU, 0xbd162246be3261f2U,
  0x3d43b4e8bd9da4c8U, 0x3d788d0abe362c17U, 0x3d46eb2a3da580f3U, 0x3d06d230bceed449U,
  0xbabb34673c59d605U, 0xbd1ca741bc681bd6U, 0x3d0cfce33cbbea87U, 0xbc3e21b43ccd5e1cU,
  0x3ce60f48bcf69a59U, 0x3b1b86e13d245a46U, 0x3cc1e247bd8b91e4U, 0x3d16df543e043895U,
  0x3d8054743c587597U, 0x3c831b09bcd123bbU, 0xbcd705c0bc94895aU, 0xbd5d4edcbe13adf5U,
  0xbd50bb9dbcde07b4U, 0x3d823e903d80104cU, 0xbdb39a18bdb388edU, 0x3e7001e03e144a37U,
  0xbc484484bce70976U, 0x3c199402bd01bfdfU, 0xbc896a5dbdae142cU, 0x3e254dec3ccc35e5U,
  0xbda97789bdb47a1bU, 0xbd2a70033e21d2c9U, 0x3d1b47d13c8dfe29U, 0x3d8c33bebcb0ac5cU,
  0xbd88b8343d2e144cU, 0xbe0304d2bdd88b32U, 0x3ce006a4be21fed2U, 0x3b868901bdf66abfU,
  0x3cf958bebd3c985dU, 0x3d7e18bb3cf56e05U, 0x3ce44800bc535938U, 0x3e57a5a63e568f5bU,
  0xbdb41b513ddc3324U, 0x3da14510bd6a4201U, 0x3dbe0b16bdcfba3cU, 0x3da0c5453e2bac2dU,
  0x3c78fe70bc569212U, 0x3d9e61303e33c971U, 0x3d53188fbe03225bU, 0x3d930dcbbc29d5f1U,
  0xbd92e7f23ca4f26aU, 0xbdc178cabd2f7eceU, 0x3aa35e3dbe4e79b2U, 0x3d12169ebe1a5498U,
  0xbda022373cf885afU, 0xbaabf1343d4bbb28U, 0x3d6420fbbdb4afb3U, 0x3eb40a943dff2770U,
  0xbd2b93583d84716eU, 0xbd2550acbd1f2e76U, 0x3c89ae69bd45cdc2U, 0x3d9249713dfda63fU,
  0xbd97bdc6bdd7d542U, 0xbd70ec683e068b91U, 0x3dc025e33da9daa2U, 0x3d4c12583ba49812U,
  0xbc80f8a23ca4a863U, 0xbd909e03be2eea65U, 0x3c1ae1a8be7ec5e1U, 0x3db93419bd8bff61U,
  0x3cfe21783ca16c09U, 0x3ce50582bc7efe7aU, 0xbc995cc23be4cca2U, 0xbe0d940e3cc08142U,
  0xbc25c94dbd26c11eU, 0xbe3a76d63dac8cc4U, 0xbd9109febaf112e4U, 0x3cb3b8dc3b3a5886U,
  0x3e2a9771bc231112U, 0xbc7ad66d3dd3622dU, 0x3d395b043e146802U, 0xbb83803abe1ce78fU,
  0xbe704e0c3d86fc7fU, 0xbd4909583d375490U, 0x3b52bcdb3dfb2b71U, 0x3d755c5abe0efa5aU,
  0x3ded7cb9bcdbe545U, 0x3cd326c23d2b1113U, 0xbda36181bda3061dU, 0xbd1246973c77d44bU,
  0x3c21a70fbd565c41U, 0x3d096d123db5d79fU, 0x3df363bc3b15e3d5U, 0xbd2493b2bd385bccU,
  0x3c944b46bdab22f7U, 0xbd3bc1813b81064dU, 0x3dab66673c22fca9U, 0xbcf4b260be943fd3U,
  0xbe90a3193d1f9f77U, 0xbcd900103dd1a5e9U, 0x3d14bca13e0edb49U, 0x3c52c10e3ce4c085U,
  0x3d99b9a83cbadb50U, 0xbd67a206bcf1e624U, 0xbd474b3dbd6284efU, 0x3b840ac6bcbfd803U,
  0x3e0db55f3b843ed5U, 0xbd7266283da92ae1U, 0x3c959a37bd55425cU, 0x3d4e00803d422bdaU,
  0x3bcaba41bd33acb0U, 0xbd66926d3da668f9U, 0x3d52dd973e17335dU, 0x3d2f7a01be619922U,
  0xbe69d56d3d0f72fcU, 0x3bb461203d8ddb6fU, 0x3d7e37da3e5268edU, 0x3bc8ab4dbd733b9eU,
  0x3cbaf1003d64b63cU, 0x3d6e55703c8075c6U, 0x3d975c923cad3431U, 0xbb83dd3bbcbca706U,
  0xbc26d8e73d2275ddU, 0xbd57e63d3dbf563aU, 0xbd4f161d3d4e3cdeU, 0x3d4abe573dc4d5eeU,
  0xbd68b3073b159a05U, 0xbcac21943c2430e8U, 0xbdb9b4edbda156a4U, 0x3c383a523d90d3c2U,
  0x3d1bcd2dbd1156b3U, 0xbcca86e53d23b1b2U, 0x3dbfdc863d059947U, 0x3c4f956f3ba04a49U,
  0xbca6c4e23d7cef25U, 0x3c725b04bd430928U, 0x3d2657a63c3be7dcU, 0x3d09c7433d54056bU,
  0xbd185acf3dd9498dU, 0xbd4e80edbd408fbcU, 0xbcb9f3853be0faf8U, 0xbc36da4d3da0305bU,
  0xbd539327bcbbc96fU, 0xbb397ca538b50a5fU, 0xbd6deb653b42be7cU, 0x3c819e503c643daaU,
  0xbd563c47bc350e7fU, 0x3d24fedcbcdd556cU, 0x3d949be43d9de598U, 0xbc219e873a8047aaU,
  0xbb46fa03bc2837a2U, 0x3c8b9c2abc993117U, 0x3cca8dcb3c4e9ad5U, 0x3de2d9803ae6f9a9U,
  0x3d17567a3dcbf258U, 0xbce8b433bc0d5700U, 0xbdaad9f83ddc24aaU, 0x3bcf79473daf5908U,
  0xbc786628bc94b5a7U, 0xbd830d9c3db04899U, 0x3b8136e8bd6a0bc4U, 0x3d24211e3d189f75U,
  0x3d3b5b263d56b584U, 0xbc3efbb43ce6bbacU, 0x3da2efc83d1cc3c6U, 0xbc20fef13c8663f6U,
  0x3bf26f9e3a089950U, 0x3e1a7ad9bd11439aU, 0xbd9b48c7bc4c57afU, 0x3d36be6f3d52373fU,
  0x3dd78cbabd99f199U, 0xbe1e6d15bcafa6b2U, 0x3dd187573d20e1b5U, 0x3dd61c1d3cab4938U,
  0xbd9e5e25be02d9ffU, 0x3d2e93583a0c4dffU, 0x3e1daf0ebcefe89bU, 0xbccdc8b6be1c396aU,
  0x3dbde349bbb6202fU, 0x3bd7bb453d475b2dU, 0xbe0daa0abbfa435bU, 0xbb6c08943d57d58fU,
  0xbc8edb27bd81d3e3U, 0x3e0450e6bbaa0c16U, 0xbdcb0e3fbd8f0363U, 0x3d9d6d223d34dbb2U,
  0x3d17ea1abdd45d42U, 0xbe06c4573be5f64fU, 0x3dad61773d9dbca0U, 0x3d90eddabc4b893aU,
  0xbd245909be0d9ae4U, 0x3d9e675cbd4052e2U, 0x3dc9be57bdd9c0c2U, 0xbdcb3a0cbe068a65U,
  0x3d95f9fcbd02fcc9U, 0x3c01740f3c98a0f5U, 0xbe00378abb2aae42U, 0xbc4ecf3c3d2c3f03U,
  0x3d55e218be150429U, 0x3e1298c53d52df8dU, 0xbdb232f5bd837b4fU, 0x3d23b9d43c486ad1U,
  0x3dd82dabbddd257cU, 0xbd7f9dbfbd05bba4U, 0x3d337ea73d800a8bU, 0x3e1c6882bd8cb5eeU,
  0xbb7247afbdf1e360U, 0x3d14c0bc3d248f58U, 0x3dad5800bda1dbefU, 0xbdb1785bbe22a828U,
  0x3cfd37ea3cce74b1U, 0xbcc88723bd023295U, 0xbdd478d93b2c0625U, 0x3d8d69c63d6d6a17U,
  0xbd10237a3cb25e14U, 0xbc911fd63c9db0a0U, 0xbd8b2f133d1e28daU, 0xbccbc1e6bde3d257U,
  0x3d4d2ceb3d474ef8U, 0x3d58fb3cbc088b2cU, 0x3d2c8e7bbd8f1504U, 0x3d3b1348bc0edebcU,
  0xbb907903bc9432aeU, 0x3bda726d3c8d9238U, 0x3d356ac2bd0ccb12U, 0x3d6b707dbcddd8eaU,
  0xbc440e793d37ebf7U, 0x3d84d7293d5b5408U, 0x3de868e93e0b4094U, 0x3d2920bebd78dd72U,
  0xbd57241abd0a93c2U, 0x3d0f60d73cf915ccU, 0xbcad70523d582de4U, 0x3cd81fc4be1cfa11U,
  0x3c9cf930bc6e2645U, 0xbcac76f63ba4cc4dU, 0x3c3aa952bd16f2edU, 0x3d3ddeb33d4f994bU,
  0xbd4603bb3d225a9cU, 0x3c472da9bc50b264U, 0x3c3bfd57bdcfcdcdU, 0x3cd4555dbc1cf299U,
  0xbc9511913cecb3b2U, 0x3d5479ee3d427691U, 0x3c2df777b7ef98e1U, 0xbcee12a2bde1b94aU,
  0xba9c10acbc8f22beU, 0xbc365aafbb9798b3U, 0xbba3a0eb3d2ffd1bU, 0xbd5d192abdb6ee94U,
  0x3d13489c3ba0f6ebU, 0x3e0522b73c1b623dU, 0xbd3c5e48bc908d55U, 0x3d867d28bc8835fdU,
  0x3d38029cbc114697U, 0x3d54d822bd7a2691U, 0xba8c8e113db520b8U, 0x3d88a6f8bdd0da2bU,
  0xbd70135b3d99f2caU, 0x3bcf2a3f3da76f23U, 0x3ce02d6b3c8a6d44U, 0xbb7f55a4bdfb8b11U,
  0x3d937e27bd03d942U, 0xbca4ebcf3cfc9d5aU, 0x3cbd972abdcac6b2U, 0xbda072d63d3e5b30U,
  0x3d4c919fbd0bdb87U, 0xba8d6c3d3c2bf1f2U, 0x3da02a7fbd86cbd9U, 0x3cba77583d08e2c1U,
  0x3bb1259fbd687906U, 0xbcb6f29f3bf988acU, 0x3d75cb403d4a36ddU, 0xbc1f26243d3ceae4U,
  0xbb15b4e53c24565aU, 0xba94431ebd0860faU, 0x3cbfd38abb87dca6U, 0xbd865f29bc5307caU,
  0x3da235543da83972U, 0x3d9916de3da1024dU, 0x3ae33776bd9d073eU, 0x3dc4e7903d8f07e9U,
  0xbd7b69ab3c5f7a9eU, 0x3d08a90f3d9d95e8U, 0x3d2e67cbbc8b8722U, 0x3d8bda553cbc0820U,
  0xbdf4e97bbd835451U, 0x3da8483b3c0aa152U, 0x3c99cce7bd4d0c42U, 0x3c32e0f43cbc08aaU,
  0x3d9f4e3fbc93b55fU, 0x3ce8337fbba3bcefU, 0x3be49e523d389e71U, 0x3cf2edc9bc026a28U,
  0x3d4a7208bc3e9e46U, 0x3b8b926a3d0c6a70U, 0x3dda60083c570e2bU, 0xbb2d8e0cbb22dfffU,
  0xbc8d16723d888789U, 0xbd4c5914bd9a54fbU, 0x3dd8d063bcc85ecdU, 0x3e0672c43dc24380U,
  0xbdb65240bdd9f6faU, 0x3dbea845bd24820cU, 0x3d245ab93cc79a98U, 0xbcd96380bad581c2U,
  0x3d9fdf543dd8fe91U, 0x3d16a8d43ce135a1U, 0xbba5056a3d616e99U, 0x3de7cd263da10200U,
  0xbd83aef1bdf5e7cfU, 0x3d0ac6abbe37029fU, 0x3d9e3d8e3d8ba7f3U, 0x3d7824e3bde15a56U,
  0xbc6ab1bcbd9af612U, 0x3ce98c623e001f7dU, 0xbe3904113cf6d3aeU, 0xbcf7d8a0bd58bc28U,
  0x3d8ea19b3db3706dU, 0x3da88601bd887600U, 0xbe1189a63d8e2e9aU, 0x3daca161bdabc5c5U,
  0x3bac3b023dad28baU, 0xbcc194763dab20c1U, 0x3e2abd0b3d84e74fU, 0x3dd9b2453d03eb20U,
  0xbea16638bdce9d7fU, 0xbdd05e43be0b5fc6U, 0xbc854a993e2685d8U, 0x3d48cbdabde41a76U,
  0xbd39a851bda5cd1aU, 0xbdf047a73e0df6f9U, 0xbe991b9a3cc9bac5U, 0x3d3048b3bcb380e0U,
  0x3dcda2553e73a962U, 0x3df426483c536c14U, 0xbdbead313e886de7U, 0x3da9f33cbd5cfe11U,
  0xbd1790963c6ecfb8U, 0xbd3d2f953d8d727dU, 0x3e0889bc3d1e73eaU, 0x3d9f97313dbd8670U,
  0xbc4d73c5bda2a9ceU, 0xbd9219c33c853444U, 0x3c3d6fc13e3b8f03U, 0x3d754591bdf4132fU,
  0xbd04e320bd29c3c5U, 0x3d4cc0203e3ea098U, 0xbdab37b93d981587U, 0xbc973b8e3d0069a6U,
  0x3e286cc53e2d6a7aU, 0x3e15cfeabdab07f3U, 0xbe4490be3b4e34d7U, 0xbc217621bdf4a753U,
  0x3c7d6bc93e122851U, 0xbce19a393e221a4cU, 0x3df03b23bc82bc04U, 0x3d65d670bdb509d8U,
  0xbd111ccdbd84cf6eU, 0xbdeb6816bdcb0319U, 0x3e276e7f3d59870dU, 0xbbe0edf1bd6e3412U,
  0xbe1761643d0bb4eaU, 0x3d8548d3bb28ad98U, 0xbda2d0fc3d598c2fU, 0xbd691c4e3d5d5e95U,
  0xbdb48ac63d063567U, 0xbdce8595bd800732U, 0xbe07eff7be0cf7a3U, 0xbdb3b9373d9f3eb5U,
  0xbd857158be270f62U, 0x3c871550bd25a9fcU, 0xbc4c1e46be1605caU, 0xbe35d5943d03b968U,
  0xbe56df103d4d2ae0U, 0xbd83ef66bdbf26ffU, 0x3e476691bd95b4f4U, 0x3ca94eabbe22b418U,
  0xbdc17f66bd038528U, 0xbda907f1bd6d7382U, 0xbe1b31a53d579c3fU, 0xbdb365b2bceff89fU,
  0xbd4a80b8bdc09c4cU, 0xbd993eb4bd5a21a4U, 0xbe055d74bcf8c501U, 0xbdfc60bf3db90674U,
  0x3d2179a1be80091eU, 0x3c5161edbdc71ad7U, 0xbd51448bbdf89d11U, 0xbe271fdf3cbbf95eU,
  0xbe02430abe22a584U, 0xbc94579dbd94eeadU, 0x3e689e133dabfdf6U, 0xbd69b027bdf49f75U,
  0xbe07e60c39f34484U, 0x3baeb924bdb2ca29U, 0xbd8529713bc14949U, 0xbda425e83dc788aaU,
  0xbcf024c63d177a83U, 0xbd96929dbd615c37U, 0xbdc79648be87d0c7U, 0xbe490bd63dd7ec85U,
  0x3db1bebebe8031caU, 0xbcb25328bce3e574U, 0x3d4b4c6fbe3c8e12U, 0xbe1d8544bd897934U,
  0xbd65b2603db5eaa7U, 0xbcded54cbe081404U, 0x3c460330bbd67232U, 0xbcf1810fbd4d7de2U,
  0xbd34cdfc3bc88462U, 0xbda0d7683dfd4ef2U, 0x3c3db20fbd140adaU, 0xbd2f28873db178e0U,
  0x3e1c3fdfbd6eb33aU, 0xbd9146bb3e874874U, 0xbc0ddb343e3e9901U, 0xbc90fb6cbd3751dfU,
  0x3d2f02d83bc24473U, 0xbdc62ef9bd30b16fU, 0x3d0e516fbd3dd49fU, 0xbd73d378bd8aa947U,
  0x3d4041463d90a367U, 0xbd1022c63c9f6169U, 0x3cbb2d96bd5d2a3aU, 0x3dbe45f33d02e98bU,
  0xbb8cdaa0bdb754a1U, 0x3be578e43dfe7019U, 0x3d1f38fc3d2bb802U, 0xbd024fa53d47f9e8U,
  0x3ca8824bbc6836f7U, 0x3d62a5e1ba94139dU, 0x3d2c8530bd9adb8cU, 0xbcaee2c1bdaf9dedU,
  0xbd29a955bcc6dad0U, 0x3bcbb12ebdb2f8a6U, 0x3dd6f82bbd048fa5U, 0xbc7e983a3cd45b8aU,
  0x3d11b0f63dc31eb5U, 0x3d3b8cea3dd4d553U, 0xbd91992bbd20f861U, 0xba928820bd5ae5adU,
  0xbd6a400ebd9b1b1fU, 0xbdadd4dc3c926271U, 0xbdb96dd9bd700b09U, 0x3c4a2a50bdbfb2e7U,
  0xbd37ff7fbd1e9a6fU, 0xbcd57c1e3dc53c3cU, 0xbca9bf603e5b3d1aU, 0x3d94837dbd7cbc6eU,
  0x3d0495a83e115f2fU, 0xbdcfe8393cd788c6U, 0xbc55eb813d7a3029U, 0x3ccc61b33d33f1cfU,
  0x3c5d9fe0be14986bU, 0x3cbf2565be837f7fU, 0x3cfb65503d85dde0U, 0xbd4e6c0b3c533edeU,
  0x3c496cd83cb21272U, 0xbe194e863da4bc98U, 0xbe2176da3bf90f8cU, 0x3dcb412c3d07ef9cU,
  0x3e10f40c3d14feafU, 0x3db2a5d53dba18f9U, 0x3db65dda3bd1de57U, 0x3bbf1259bdb4a444U,
  0x3d82105ebadcad33U, 0xbe1c541bbc14f792U, 0xbb1487c3bc8bad54U, 0x3d930c403efa6245U,
  0x3cd77664be2a40b6U, 0x3e078c233c9bedcdU, 0xbe3896d43e24040eU, 0x3d5dc7dbbe3b7badU,
  0xbd675184be0df72fU, 0xbe2c593cbdfa91edU, 0x3da1262cbd7d9856U, 0x3d1a56c63d8fbc06U,
  0x3dadd38cbc9a191bU, 0xbe4e9d86be025a7bU, 0x3d75340b3dc891b8U, 0x3d05d60a3daf9b20U,
  0x3d41141bbd8a17fbU, 0xbd50d199bdae95faU, 0x3d6dee263d79820bU, 0xbcb1fe8e3e80b585U,
  0xbdb2d8d7bdaca8d2U, 0x3ab0c45abe1e7b94U, 0xbd88a8f63bac836cU, 0xbd07e5e1be61d975U,
  0xbd5eec24bdbc429cU, 0x3e43e76abdef2bc5U, 0x3da5f256bdba4a86U, 0xb9b69d433d4f12d8U,
  0x3dc241ccbbb60a17U, 0xbe4d607a3dba5b1aU, 0xbdb07192bcf26f53U, 0x3c2fa2debdefd1ceU,
  0x3cb1eafbbdf4232fU, 0xbd2f50cebda05060U, 0x3dd11d80bcbdd57bU, 0xbe1275bc3e9aaf99U,
  0xbc8e42ae3d542c8dU, 0x3d87263a3e1f3f49U, 0x3e21f93abdf69e30U, 0x3e0a80a53d9b6cd5U,
  0xbc8f07babd20f658U, 0xbdf76864bdc3229bU, 0x3e568594bd84c435U, 0xbc3dea7a3de2b95dU,
  0x3de4774d3cf9016eU, 0xbe65f67a3e1dcd97U, 0x3d81d477be28d70bU, 0x3e1232e6bdf03269U,
  0xbc8a40a3be027e7cU, 0xbe08e644bda3630fU, 0x3dd044e93cfdd937U, 0xbdc6e3d9bdad19aeU,
  0xbd6145e7bd3e3d46U, 0x3db1706ebe0f8021U, 0x3d6de8c1bdde2845U, 0xbd297e51bd54e27cU,
  0x3d6dabddbe224d76U, 0xbe6064763d599158U, 0xbd583094bdb8f12aU, 0x3cecc22ebdbc8fc7U,
  0xbd72f4f13d2fdf7aU, 0x3d4a708bbbb5790bU, 0xbd7903ca3d47b494U, 0xbe26ae3b3a9574a5U,
  0x3cdea878be81e3d8U, 0xbe2dace1be589d56U, 0x3d25ed26be94831fU, 0xbe292861bc06587bU,
  0x3d6ce489bce1d607U, 0x3d709b9c3c9d287eU, 0x3e947a68be0c110eU, 0xbcd97ce43e161c38U,
  0xbca03a94be35edbdU, 0x3db12dc93d7a152fU, 0xbc4183973ca3606dU, 0x3d781a23bcb5910cU,
  0x3d33b90a3b92d460U, 0x3ce230be3e23fd34U, 0x3d22ad90be37dbf2U, 0xbe784cde3c3f65bfU,
  0x3cd6a0a4bec7ffc1U, 0xbe03f918bd85ab0bU, 0xbc405240be0cdac8U, 0xbe3c4afebce78ab3U,
  0xba8944eb3d23d74eU, 0x3ca21125bc88239aU, 0x3cb2df26bc2cad94U, 0x3d0336dabcca62cfU,
  0x3cfeafddbc068d4eU, 0x3c85851f3d687264U, 0xbd1d326bbcfe298fU, 0xba4fc1573d487e1bU,
  0x3d03c4c93d4951a0U, 0xbda8c8173d4acc09U, 0xbd779842bca19eaaU, 0x3d5b6557bbe10e0bU,
  0x3d0e918ebbc7414cU, 0xbc272f713d17b2bcU, 0x3d9a4d653ca1c200U, 0xbc4fe3933db0beb4U,
  0xbd013aa13d835a0aU, 0xbced42ed3d000d11U, 0xbc835e90bcac0fd1U, 0xbcf5212cbd91a3acU,
  0xbc093a343c1ebf4bU, 0x3c784b223c24d712U, 0xbcbf0d853d1d9d4aU, 0xbc732b073d3682c5U,
  0x3d1942783d1002c1U, 0xbcfaa275bcfbf893U, 0xbcce0b933ca13cf4U, 0x3cc7ed1ebc2582a1U,
  0xbc3c751fbd7037aeU, 0xbd4051083dc1e38bU, 0x3d34392a3c4cc8adU, 0x3cd8a87f391f7e3fU,
  0xbcbb460a3d87229bU, 0xbd4810973d480dfeU, 0x3d79cd573d03f3c4U, 0x3cc90869bd519b2cU,
  0xbc2a90673d866acdU, 0x3db8cdc53cb4321cU, 0xbd4b1da63d20ccf1U, 0x3cab04423d2b7318U,
  0x3cb668d73cfa2913U, 0xbac40b6bbc7928d5U, 0x3c9fc115bb9add50U, 0x3d008692bd4ce2d0U,
  0xbcfe7993bd7838dcU, 0x3ca9aeba3daa534aU, 0x3d0bdf163d67d98aU, 0xbd0dc3193c6092a2U,
  0x3db1a226bcfcab64U, 0xbd164c713d016588U, 0xbdc627babdd84b9aU, 0xbd8ac1cf3d2c2423U,
  0x3e2dba62bc34b6cbU, 0xbe7fbd35bd68e92eU, 0x3e485c7c3c1c4d29U, 0xbd294d713d4b1f65U,
  0xbe5247e6be0337d5U, 0xbd061ada3d5fc82fU, 0x3e2a61c6bd3c7099U, 0xbd816905bdedd2e5U,
  0x3cfc9387bd89764aU, 0xbc4bdc853ca31259U, 0xbdbaca913d736398U, 0xbd49d2613d958834U,
  0x3e21907fbd37c11bU, 0xbc0150513d0bd562U, 0xbcee419bbbdb341dU, 0x3bf7f64abc7bc6b7U,
  0x3e0997e3bd0ee1c2U, 0xbac98b75bdc9c1b6U, 0x3e79770a3c70f4b6U, 0xbd99642ebd367008U,
  0xbc8c46ffbd986f64U, 0x3d3f943fbc76cce8U, 0x3e53b1afbe65c87cU, 0xbd1240c7be7b1a75U,
  0x3d4d651abcf0b9f2U, 0xbcd69708ba9b6b19U, 0xbd28de493d945df4U, 0xbd4674ce3cf01026U,
  0x3e04107abbf172abU, 0x3c5b612d3e0ade96U, 0xbc5e077dbda51957U, 0xbcba58c63d4d5963U,
  0x3e2926a03d7048b3U, 0xbe0ae759bc5e5122U, 0x3e552fefbc80df63U, 0xbb7a8a5c3c83a6f0U,
  0xbdbd7994bde312ecU, 0xbc36063bbd34d99fU, 0x3e65c892bd7fb22fU, 0xbded8fd0bde956aeU,
  0x3d9e7d0e3d3c5008U, 0xbd869adf3d3c1820U, 0xbbd92e893dbf3e05U, 0xbd5377973db5a630U,
  0x3ca684113d42e21eU, 0xbd93dae4bd04823bU, 0xbd90c4d4bc2863e7U, 0xba0a59713d1487d4U,
  0x3e04d5b1bd8a79ebU, 0xbd360f9cbcf9dc63U, 0x3dc618e73bc2b5a7U, 0xbbfb845abd289024U,
  0x3cca3964be0eca2bU, 0x3dc1dc4c3b8eada6U, 0x3c04a41abc960811U, 0x3d561759bd8da32cU,
  0xbc8df1d23db36a0fU, 0x3c81a3863db61b34U, 0x3d05d11a3dd5c270U, 0xbcad367cbdef54aeU,
  0xbd4c8024bcb8cf61U, 0xbc8cfe8f3d61cf16U, 0xbd0e4405bde738bbU, 0x3c5e67273b810540U,
  0x3d6ad26fbcca5a38U, 0xba22fa73bcf0503fU, 0x3d10c527baed7373U, 0x3d5526d1bcdfad95U,
  0x3c93c4aebd24910fU, 0x3d5a8b04bba5dedbU, 0x3da0a525be042181U, 0x3c86260dbdc602b2U,
  0xbcf90278bc5273cfU, 0xbc844dad3db3a688U, 0xbba4cee5bdad7aacU, 0xbd897d0ebe35786bU,
  0xbca843d13e2173deU, 0xbd38c6e2bcdb0f4fU, 0xbdee95fcbc0028c3U, 0x3d6f8c6abd3681aeU,
  0x3db8f86a3dc1c42eU, 0x3ce71399bd929b74U, 0x3d137f4e3ba0e03bU, 0xbbc743e8bd3b40dbU,
  0xbd633ccdbe08159fU, 0x3d861ff0bdbb5be8U, 0x3dbcc60c3d8c9fb3U, 0x3d959b28bd9cdf57U,
  0xbc187d7f3e0e4ba9U, 0xbccd20283db90b51U, 0x3cd01c6f3e16bfe1U, 0x3c91518fbe2179b4U,
  0xbd6c063c3e0e9750U, 0x3d2062263e55c021U, 0x3ddba6e7bdf1db21U, 0x3ce590703bb5e83aU,
  0x3d67000ebe2e4bedU, 0xbdb266fabb8acadfU, 0x3daa00b83db283b8U, 0x3bac01283dd179adU,
  0xbc810526bd5a7ef0U, 0xbd63f1c93cdb43d3U, 0x3c632ed1bd613a24U, 0xbafc9bd9bdf81ef9U,
  0x3e2a36c7bcdc84cdU, 0xbd7b582c3dd00c73U, 0xbd0bc5febe02b29bU, 0x3d92b7803e02bf2bU,
  0x3c944a003e72d30eU, 0x3e39d94a3e544ef3U, 0x3dd2e400bb7a65d7U, 0x3e3c0c0fbd90756bU,
  0xbd8ddfdfbe231840U, 0xbe17de42bd051c2cU, 0x3dfa3cc53dd1c1daU, 0x3dc98ea13d97af15U,
  0x3d4737353d22d62eU, 0x3cfcb3a0bc61190aU, 0x3c2d03903d1953a3U, 0x3d84e0d5be4077baU,
  0x3d9f8a49bdbdb886U, 0x3e17cfd43de63f0cU, 0x3d0be7a13c826ee1U, 0x3c21512a3e0f0874U,
  0x3e2796013de0e30aU, 0xbc77089fbbda2e8fU, 0x3df8ebd53c0a4eb5U, 0xbc190287bdc97ceeU,
  0xbe1f179cbd8dc0f0U, 0x3c0e06edbb5cb6d0U, 0xbc6d394f3b21e1deU, 0xbe0afebc3dd4d788U,
  0x3d6381a43d19ea09U, 0xbe6b65e23d1d804eU, 0x3c7fc8f63e005e57U, 0xbc8dcb3fbc722594U,
  0xbe0fb9bebe32a081U, 0xbd56209e3cd46ed6U, 0x3d61bc25bd80f848U, 0xbe133981bdc0fd19U,
  0xbbcabea0bd6b2831U, 0xbe41440ebe35b8e5U, 0xbd3258663e4e8942U, 0xbe8ebc52bed7d3abU,
  0xbe1bd2c0bb37bb39U, 0x3e25fa373e0e4d8eU, 0xbe300baebc9d1c3cU, 0xbe6267a9be2522ebU,
  0x3e6d84093e050952U, 0x3c82b6c9be6019deU, 0xbe68bd03bdd26aa7U, 0xbdc04a243bef103eU,
  0xbc2df768bc8d3685U, 0x3b1436a23e204c78U, 0x3e8202ac3e629306U, 0xbd234c43be204865U,
  0xbe92293bbe0ac195U, 0xbe8223633e5a89c5U, 0x3e0287a93e2587ccU, 0xbe8f6a25becacce3U,
  0x3ca234c33e2e8127U, 0x3d3049ea3d8a68edU, 0xbe086be13c9b1142U, 0xbe8f045a3c4b82e9U,
  0xbd9da6c23e597a47U, 0x3df0cc45be00bbe9U, 0xbe603c133ebf2dd7U, 0xbd922f6d3e88391bU,
  0x3dc3cbe3bd0b0333U, 0x3e447e563dcb6bb2U, 0x3e80acef3e43affaU, 0x3db2d158bd378f05U,
  0x3e82b9343dc5e299U, 0xbe48bb2bbcdd668bU, 0xbd290638bd643d30U, 0xbe0876d2bb3e67b4U,
  0x3dd670bb3e0318e5U, 0x3d0df2503e1fc0faU, 0x3e386adbbd0526fbU, 0xbe5917debd0d754fU,
  0x3db331de3c99e35fU, 0x3ce85815bca33896U, 0x3b247d13bd3136ceU, 0xbded80cb3d8c4e2fU,
  0xbe3173a43d955747U, 0x3d2584d43d7dd8a5U, 0xbdfc15ed3e290236U, 0xbd6fa5bf3e03cc55U,
  0xbe24b408be81c66fU, 0x3c7f8725bd8bfc94U, 0x3dc52a293aa882a6U, 0x3dc08af73d969132U,
  0xbe3b450f3c75b963U, 0x3e5be2e4be0cedffU, 0xbe1c1f8e3e07e3cdU, 0xbe4cdff23c73370aU,
  0xbe321036bd0eead5U, 0xbdcf0e98be919c6fU, 0x3c17b1f4be75caabU, 0xbdbe1fdd3d868af3U,
  0x3e58f5efbdfcea3bU, 0xbd95942fbe8f1b05U, 0xbe46dc5bbeb13899U, 0xbd0a4a00bd9ab7e6U,
  0x3dbcb5bb3e19db96U, 0x3d4fb5223d2359a9U, 0x3e2687aa3e27b6daU, 0x3c53872dbe310477U,
